<pad>	0
<unk>	0
<s>	0
</s>	0
<user>:	0
<assistant>:	0
▁t	-0
▁a	-1
in	-2
er	-3
en	-4
es	-5
on	-6
▁c	-7
▁s	-8
▁th	-9
or	-10
▁d	-11
▁p	-12
at	-13
re	-14
an	-15
▁the	-16
ar	-17
ou	-18
▁m	-19
it	-20
▁l	-21
is	-22
al	-23
▁f	-24
▁an	-25
▁w	-26
▁o	-27
as	-28
▁b	-29
ing	-30
ic	-31
el	-32
▁to	-33
ed	-34
▁in	-35
▁h	-36
▁and	-37
▁y	-38
ent	-39
os	-40
ion	-41
▁de	-42
om	-43
▁u	-44
le	-45
▁of	-46
te	-47
▁e	-48
ac	-49
ro	-50
▁n	-51
.\	-52
qu	-53
ad	-54
il	-55
id	-56
▁you	-57
im	-58
et	-59
▁g	-60
ec	-61
▁re	-62
▁I	-63
am	-64
ol	-65
▁un	-66
▁con	-67
▁is	-68
\"	-69
▁T	-70
ve	-71
xt	-72
ig	-73
est	-74
▁en	-75
ur	-76
▁qu	-77
us	-78
▁la	-79
▁v	-80
ow	-81
▁for	-82
▁r	-83
ers	-84
ot	-85
▁{	-86
ut	-87
▁A	-88
ir	-89
if	-90
text	-91
ul	-92
ch	-93
▁pro	-94
▁S	-95
▁com	-96
un	-97
ation	-98
":	-99
▁"	-100
▁{"	-101
"}	-102
▁that	-103
ay	-104
od	-105
▁be	-106
▁al	-107
▁Th	-108
tr	-109
ce	-110
ab	-111
▁on	-112
em	-113
▁C	-114
▁can	-115
ith	-116
▁it	-117
ly	-118
th	-119
ter	-120
▁or	-121
▁el	-122
▁que	-123
iv	-124
▁as	-125
ct	-126
▁wh	-127
▁su	-128
ag	-129
ci	-130
ess	-131
▁with	-132
ant	-133
um	-134
▁se	-135
▁P	-136
▁are	-137
ke	-138
."}	-139
▁us	-140
ist	-141
ate	-142
▁ex	-143
▁E	-144
ere	-145
ón	-146
▁par	-147
▁your	-148
pl	-149
end	-150
?\	-151
ver	-152
and	-153
ld	-154
▁st	-155
▁H	-156
▁es	-157
ort	-158
▁tr	-159
ect	-160
:\	-161
ain	-162
iz	-163
▁\"	-164
op	-165
▁M	-166
ap	-167
▁ch	-168
▁im	-169
▁W	-170
st	-171
ib	-172
ud	-173
▁D	-174
out	-175
▁(	-176
oc	-177
ill	-178
▁pr	-179
▁L	-180
ht	-181
▁1	-182
ould	-183
▁The	-184
▁fr	-185
ies	-186
ity	-187
▁B	-188
▁ha	-189
▁me	-190
▁ne	-191
ie	-192
ment	-193
ive	-194
ip	-195
▁п	-196
▁comp	-197
ore	-198
act	-199
ión	-200
▁una	-201
per	-202
▁sh	-203
ure	-204
our	-205
▁res	-206
▁imp	-207
▁le	-208
og	-209
▁pl	-210
▁F	-211
ue	-212
ome	-213
▁ab	-214
oun	-215
▁с	-216
ide	-217
ions	-218
▁R	-219
ine	-220
▁в	-221
▁G	-222
all	-223
▁so	-224
▁los	-225
▁k	-226
ial	-227
se	-228
ich	-229
▁have	-230
ient	-231
ell	-232
orm	-233
▁N	-234
▁est	-235
▁para	-236
то	-237
ight	-238
▁sp	-239
▁j	-240
▁not	-241
age	-242
ang	-243
▁и	-244
▁des	-245
ia	-246
cl	-247
ust	-248
▁ad	-249
но	-250
able	-251
▁by	-252
▁do	-253
▁ar	-254
▁wor	-255
▁ap	-256
▁2	-257
ical	-258
ien	-259
av	-260
▁=	-261
ult	-262
pt	-263
ual	-264
ни	-265
ach	-266
ación	-267
▁from	-268
ame	-269
are	-270
ст	-271
fer	-272
form	-273
▁at	-274
▁we	-275
▁O	-276
▁pu	-277
ak	-278
▁no	-279
ind	-280
▁he	-281
ake	-282
▁this	-283
▁per	-284
gr	-285
на	-286
ific	-287
``	-288
so	-289
▁ser	-290
--	-291
▁cre	-292
ard	-293
ра	-294
▁dis	-295
ро	-296
▁U	-297
ari	-298
▁Y	-299
to	-300
ко	-301
)\	-302
▁cl	-303
ans	-304
du	-305
▁cons	-306
▁gr	-307
cr	-308
▁lo	-309
ire	-310
▁pre	-311
ase	-312
ado	-313
▁del	-314
▁man	-315
▁cont	-316
▁te	-317
▁-	-318
ack	-319
00	-320
▁hel	-321
▁In	-322
ys	-323
▁their	-324
▁more	-325
ens	-326
**	-327
▁las	-328
idad	-329
ther	-330
▁li	-331
▁ac	-332
▁\	-333
ple	-334
▁о	-335
ber	-336
▁Wh	-337
ost	-338
art	-339
ener	-340
▁help	-341
pr	-342
ite	-343
▁some	-344
ass	-345
ff	-346
ile	-347
ces	-348
▁dif	-349
ations	-350
▁go	-351
he	-352
ous	-353
ier	-354
her	-355
ice	-356
▁This	-357
▁It	-358
▁import	-359
ás	-360
▁pued	-361
ok	-362
ía	-363
ance	-364
▁but	-365
▁inter	-366
▁em	-367
ra	-368
▁fe	-369
ime	-370
▁was	-371
▁all	-372
ign	-373
▁has	-374
▁about	-375
▁will	-376
те	-377
ese	-378
ound	-379
▁м	-380
▁pers	-381
ge	-382
ence	-383
▁am	-384
▁any	-385
tem	-386
ace	-387
▁if	-388
ica	-389
ional	-390
ре	-391
▁dat	-392
▁use	-393
▁which	-394
nT	-395
▁incl	-396
ть	-397
▁und	-398
▁J	-399
io	-400
▁like	-401
▁they	-402
не	-403
one	-404
▁mod	-405
ep	-406
▁str	-407
▁also	-408
▁д	-409
▁other	-410
oug	-411
▁fun	-412
ong	-413
ли	-414
ated	-415
int	-416
▁por	-417
pe	-418
cess	-419
nI	-420
;\	-421
ks	-422
▁по	-423
▁rec	-424
▁ev	-425
ast	-426
ction	-427
ail	-428
▁person	-429
▁ent	-430
now	-431
▁may	-432
ada	-433
vel	-434
▁need	-435
ary	-436
▁prov	-437
lo	-438
ely	-439
nA	-440
▁would	-441
▁ro	-442
▁3	-443
ль	-444
aj	-445
ны	-446
▁out	-447
ech	-448
les	-449
▁comm	-450
ка	-451
▁pos	-452
▁them	-453
▁such	-454
1.	-455
▁col	-456
2.	-457
▁ob	-458
port	-459
ва	-460
го	-461
▁como	-462
ord	-463
▁cu	-464
ет	-465
ory	-466
▁resp	-467
til	-468
ater	-469
ular	-470
▁pe	-471
ond	-472
ри	-473
▁up	-474
▁form	-475
iones	-476
ons	-477
▁V	-478
▁act	-479
▁ind	-480
ough	-481
▁You	-482
ne	-483
▁includ	-484
▁part	-485
▁know	-486
▁How	-487
▁how	-488
ors	-489
▁на	-490
▁my	-491
low	-492
go	-493
nE	-494
▁inform	-495
ente	-496
▁rel	-497
3.	-498
ode	-499
ug	-500
▁más	-501
▁mu	-502
enci	-503
▁there	-504
▁could	-505
ible	-506
▁spec	-507
mo	-508
▁K	-509
▁sol	-510
▁time	-511
aus	-512
ents	-513
ps	-514
ear	-515
ful	-516
ll	-517
▁vari	-518
▁'	-519
▁important	-520
▁make	-521
▁one	-522
ose	-523
que	-524
▁co	-525
▁gener	-526
ten	-527
ject	-528
▁its	-529
▁what	-530
olog	-531
nd	-532
```	-533
ings	-534
plic	-535
та	-536
put	-537
▁exam	-538
▁progr	-539
uc	-540
con	-541
▁What	-542
eng	-543
ft	-544
4.	-545
ider	-546
▁differ	-547
ante	-548
ays	-549
ción	-550
▁If	-551
ish	-552
ry	-553
▁val	-554
we	-555
▁work	-556
ating	-557
,\	-558
▁into	-559
ild	-560
▁ver	-561
▁б	-562
▁data	-563
ле	-564
ning	-565
ub	-566
▁inv	-567
▁bet	-568
▁op	-569
ystem	-570
▁using	-571
▁int	-572
▁¿	-573
▁over	-574
▁mo	-575
▁sim	-576
atur	-577
▁real	-578
ize	-579
▁should	-580
▁En	-581
▁add	-582
▁hum	-583
▁used	-584
▁z	-585
gun	-586
ick	-587
ert	-588
ido	-589
▁produ	-590
▁son	-591
▁ins	-592
▁num	-593
ло	-594
nS	-595
iend	-596
get	-597
во	-598
▁her	-599
▁new	-600
▁cr	-601
eth	-602
oy	-603
▁ke	-604
ando	-605
▁want	-606
▁ч	-607
az	-608
ки	-609
▁ph	-610
pro	-611
▁car	-612
yth	-613
▁exper	-614
ath	-615
ree	-616
▁med	-617
ics	-618
▁get	-619
ns	-620
▁i	-621
bre	-622
▁program	-623
fic	-624
▁Ch	-625
ble	-626
▁bas	-627
ores	-628
▁reg	-629
▁ty	-630
ink	-631
▁`	-632
▁these	-633
▁|	-634
▁requ	-635
▁model	-636
▁не	-637
▁5	-638
ти	-639
▁br	-640
▁who	-641
▁ag	-642
ople	-643
▁cor	-644
▁comple	-645
igh	-646
▁з	-647
ates	-648
ta	-649
ities	-650
▁dec	-651
elf	-652
▁quest	-653
ise	-654
▁bu	-655
po	-656
▁his	-657
fr	-658
ark	-659
▁list	-660
▁ко	-661
uct	-662
oth	-663
▁St	-664
▁system	-665
ен	-666
----	-667
cial	-668
5.	-669
▁**	-670
▁when	-671
▁different	-672
▁people	-673
▁av	-674
velop	-675
amb	-676
crip	-677
erm	-678
ict	-679
▁fol	-680
reat	-681
▁trans	-682
ange	-683
erst	-684
ement	-685
cre	-686
▁Un	-687
wer	-688
▁eff	-689
ever	-690
ition	-691
row	-692
▁esp	-693
ся	-694
▁than	-695
ico	-696
nC	-697
ied	-698
ility	-699
angu	-700
▁sa	-701
▁example	-702
▁dep	-703
ла	-704
ount	-705
▁po	-706
▁La	-707
▁pol	-708
▁consider	-709
▁provide	-710
▁acc	-711
cript	-712
és	-713
▁dr	-714
aking	-715
era	-716
inal	-717
ian	-718
▁util	-719
ython	-720
▁many	-721
ля	-722
▁bec	-723
nP	-724
▁sign	-725
ef	-726
▁Here	-727
▁set	-728
erg	-729
▁4	-730
▁code	-731
ood	-732
ida	-733
▁expl	-734
▁wr	-735
▁lear	-736
▁у	-737
▁As	-738
▁each	-739
▁just	-740
▁fl	-741
\\	-742
▁good	-743
▁puede	-744
ados	-745
erstand	-746
irst	-747
als	-748
res	-749
arm	-750
▁cap	-751
▁et	-752
▁information	-753
its	-754
▁much	-755
der	-756
▁bl	-757
▁art	-758
ting	-759
▁cal	-760
▁ass	-761
ower	-762
▁langu	-763
//	-764
▁si	-765
▁most	-766
ales	-767
▁gu	-768
eg	-769
да	-770
..	-771
▁sup	-772
bs	-773
bl	-774
echn	-775
▁di	-776
▁way	-777
де	-778
cul	-779
▁мо	-780
▁thr	-781
▁follow	-782
▁find	-783
▁ext	-784
▁develop	-785
▁ans	-786
ices	-787
én	-788
▁process	-789
alth	-790
do	-791
▁play	-792
ero	-793
▁serv	-794
ause	-795
AM	-796
▁<	-797
urr	-798
▁nec	-799
);\	-800
▁human	-801
ern	-802
▁min	-803
▁where	-804
ative	-805
▁Es	-806
▁pot	-807
urn	-808
co	-809
pos	-810
ues	-811
че	-812
own	-813
▁bo	-814
▁sec	-815
▁def	-816
ential	-817
▁understand	-818
▁create	-819
omm	-820
iel	-821
▁aut	-822
▁20	-823
▁ste	-824
nThe	-825
▁tw	-826
▁Ad	-827
▁Al	-828
fl	-829
ade	-830
▁don	-831
encia	-832
ios	-833
\",	-834
▁tu	-835
?"}	-836
▁ide	-837
▁lar	-838
▁plan	-839
▁then	-840
▁pod	-841
▁through	-842
ix	-843
▁text	-844
ax	-845
blem	-846
ми	-847
ced	-848
>\	-849
▁start	-850
▁pres	-851
cept	-852
▁utiliz	-853
ina	-854
▁hab	-855
ivers	-856
▁high	-857
wor	-858
▁specific	-859
же	-860
▁Can	-861
▁tem	-862
ments	-863
uest	-864
ock	-865
▁[	-866
wn	-867
nIn	-868
lease	-869
ages	-870
ativ	-871
),	-872
▁sm	-873
▁sc	-874
```\	-875
▁techn	-876
▁dur	-877
▁experien	-878
▁been	-879
ior	-880
▁might	-881
iento	-882
ds	-883
▁opt	-884
de	-885
▁ret	-886
}\	-887
▁{\	-888
ween	-889
▁fact	-890
▁pop	-891
▁э	-892
app	-893
ument	-894
ender	-895
▁ve	-896
▁between	-897
ph	-898
ife	-899
▁best	-900
▁+	-901
▁result	-902
pres	-903
AME	-904
▁An	-905
▁0	-906
▁sk	-907
▁AI	-908
gan	-909
ния	-910
▁adv	-911
мо	-912
▁well	-913
ism	-914
pect	-915
err	-916
▁про	-917
по	-918
▁El	-919
▁loc	-920
ung	-921
▁language	-922
▁die	-923
ident	-924
▁poss	-925
▁tas	-926
▁including	-927
rol	-928
▁hist	-929
dit	-930
▁does	-931
▁first	-932
ме	-933
▁world	-934
▁sent	-935
▁vis	-936
ру	-937
▁depend	-938
▁two	-939
ци	-940
▁der	-941
▁while	-942
▁sal	-943
▁prof	-944
ob	-945
6.	-946
up	-947
nD	-948
▁answer	-949
▁char	-950
ви	-951
▁health	-952
▁ра	-953
▁19	-954
▁let	-955
ве	-956
ware	-957
nR	-958
za	-959
▁feel	-960
▁see	-961
__	-962
▁за	-963
ving	-964
▁inst	-965
▁problem	-966
com	-967
ety	-968
ember	-969
amente	-970
▁dire	-971
▁try	-972
gg	-973
enc	-974
▁ever	-975
nH	-976
▁fil	-977
ont	-978
ivid	-979
**:	-980
▁tien	-981
▁10	-982
ves	-983
trib	-984
▁со	-985
be	-986
fore	-987
ature	-988
▁pat	-989
ify	-990
▁However	-991
▁Q	-992
▁For	-993
▁look	-994
iew	-995
▁back	-996
pre	-997
▁Est	-998
nO	-999
▁mus	-1000
▁function	-1001
ically	-1002
▁were	-1003
icas	-1004
iss	-1005
erc	-1006
▁sub	-1007
.\"	-1008
▁number	-1009
par	-1010
ata	-1011
▁ej	-1012
nL	-1013
▁signific	-1014
la	-1015
ows	-1016
▁equ	-1017
▁long	-1018
▁к	-1019
aciones	-1020
crib	-1021
▁They	-1022
ious	-1023
ex	-1024
▁ed	-1025
ved	-1026
▁product	-1027
▁hand	-1028
▁hac	-1029
▁sin	-1030
▁only	-1031
ution	-1032
▁Re	-1033
бо	-1034
ras	-1035
ren	-1036
▁bel	-1037
▁lib	-1038
▁af	-1039
atch	-1040
ique	-1041
any	-1042
ines	-1043
▁general	-1044
▁ка	-1045
ма	-1046
▁main	-1047
▁bre	-1048
ura	-1049
cia	-1050
acter	-1051
▁sobre	-1052
▁own	-1053
bo	-1054
ди	-1055
ily	-1056
por	-1057
aining	-1058
▁He	-1059
▁có	-1060
king	-1061
▁water	-1062
▁personal	-1063
vers	-1064
ness	-1065
▁sit	-1066
nTh	-1067
old	-1068
▁entre	-1069
▁les	-1070
án	-1071
▁take	-1072
▁appro	-1073
ale	-1074
▁our	-1075
ually	-1076
▁ay	-1077
▁Pro	-1078
vent	-1079
▁class	-1080
▁prom	-1081
ized	-1082
▁activ	-1083
mer	-1084
▁fam	-1085
▁что	-1086
ние	-1087
▁often	-1088
ambi	-1089
red	-1090
▁cas	-1091
▁think	-1092
cu	-1093
▁а	-1094
tern	-1095
iven	-1096
▁dem	-1097
▁som	-1098
▁off	-1099
▁sus	-1100
▁é	-1101
▁ein	-1102
ann	-1103
▁NAME	-1104
line	-1105
▁provid	-1106
▁ayud	-1107
▁year	-1108
▁algun	-1109
▁otr	-1110
10	-1111
20	-1112
hip	-1113
ences	-1114
ias	-1115
▁6	-1116
▁cult	-1117
ty	-1118
inu	-1119
nB	-1120
empl	-1121
▁There	-1122
aph	-1123
▁commun	-1124
▁espec	-1125
▁energ	-1126
▁typ	-1127
',	-1128
ador	-1129
pen	-1130
▁impro	-1131
▁Ar	-1132
ave	-1133
▁seg	-1134
ros	-1135
▁comput	-1136
▁bus	-1137
▁question	-1138
▁lead	-1139
▁key	-1140
▁sur	-1141
mente	-1142
ры	-1143
ures	-1144
▁being	-1145
▁conf	-1146
▁tod	-1147
▁based	-1148
ples	-1149
▁*	-1150
▁include	-1151
▁mej	-1152
ins	-1153
ara	-1154
iron	-1155
ven	-1156
▁eng	-1157
ables	-1158
▁rem	-1159
7.	-1160
▁я	-1161
other	-1162
▁prote	-1163
ody	-1164
▁top	-1165
rect	-1166
▁had	-1167
▁run	-1168
▁partic	-1169
▁об	-1170
▁design	-1171
icos	-1172
ías	-1173
eb	-1174
akes	-1175
▁power	-1176
▁Python	-1177
чи	-1178
).	-1179
ik	-1180
▁call	-1181
▁alg	-1182
▁redu	-1183
▁$	-1184
\"\	-1185
ethod	-1186
adas	-1187
▁individ	-1188
▁effect	-1189
▁е	-1190
iente	-1191
▁game	-1192
▁Ex	-1193
ited	-1194
▁few	-1195
▁sure	-1196
▁life	-1197
ym	-1198
▁even	-1199
▁ens	-1200
ts	-1201
ér	-1202
term	-1203
▁mult	-1204
istant	-1205
▁от	-1206
▁social	-1207
▁support	-1208
ún	-1209
▁popular	-1210
▁invol	-1211
19	-1212
хо	-1213
▁sch	-1214
▁вы	-1215
▁env	-1216
nF	-1217
▁cho	-1218
entes	-1219
ato	-1220
ward	-1221
▁file	-1222
ways	-1223
ather	-1224
▁mon	-1225
und	-1226
!"}	-1227
nW	-1228
▁при	-1229
▁term	-1230
▁down	-1231
ars	-1232
no	-1233
ner	-1234
ustr	-1235
urs	-1236
▁perform	-1237
▁build	-1238
▁both	-1239
ger	-1240
▁det	-1241
▁possible	-1242
nM	-1243
сти	-1244
oss	-1245
▁small	-1246
▁require	-1247
▁incre	-1248
▁type	-1249
ank	-1250
yn	-1251
▁here	-1252
▁8	-1253
▁right	-1254
▁give	-1255
ology	-1256
▁open	-1257
uf	-1258
▁spe	-1259
aje	-1260
▁pas	-1261
▁method	-1262
ased	-1263
▁до	-1264
▁name	-1265
ational	-1266
▁No	-1267
añ	-1268
▁то	-1269
。\	-1270
▁stud	-1271
ambién	-1272
до	-1273
ets	-1274
▁interest	-1275
ress	-1276
▁att	-1277
()	-1278
▁ref	-1279
▁read	-1280
nN	-1281
▁individual	-1282
ario	-1283
▁hay	-1284
▁neces	-1285
▁great	-1286
idades	-1287
▁pueden	-1288
▁eas	-1289
▁potential	-1290
inci	-1291
ertain	-1292
▁cle	-1293
▁following	-1294
jet	-1295
▁та	-1296
ute	-1297
▁difer	-1298
▁direct	-1299
▁before	-1300
▁met	-1301
▁pass	-1302
▁she	-1303
▁cent	-1304
▁um	-1305
▁Con	-1306
▁day	-1307
▁light	-1308
▁mejor	-1309
ateg	-1310
uer	-1311
▁deb	-1312
▁oper	-1313
arch	-1314
▁comb	-1315
▁same	-1316
▁prim	-1317
▁point	-1318
truct	-1319
▁Is	-1320
▁Tr	-1321
ene	-1322
▁#	-1323
▁во	-1324
iment	-1325
arr	-1326
work	-1327
cer	-1328
▁lim	-1329
▁sum	-1330
ources	-1331
▁every	-1332
▁very	-1333
uro	-1334
den	-1335
▁mean	-1336
▁fin	-1337
▁coun	-1338
▁complex	-1339
▁proper	-1340
eck	-1341
aterial	-1342
ones	-1343
▁x	-1344
▁food	-1345
iendo	-1346
▁curr	-1347
▁organ	-1348
nect	-1349
iem	-1350
▁cam	-1351
▁end	-1352
▁because	-1353
▁learning	-1354
▁known	-1355
▁Sure	-1356
▁To	-1357
erv	-1358
▁mark	-1359
ource	-1360
▁vers	-1361
ustom	-1362
▁around	-1363
ng	-1364
iqu	-1365
▁perm	-1366
▁De	-1367
▁object	-1368
bers	-1369
▁dist	-1370
ething	-1371
oid	-1372
▁beh	-1373
▁exist	-1374
▁anim	-1375
ality	-1376
▁happ	-1377
read	-1378
▁vide	-1379
iness	-1380
▁pa	-1381
uy	-1382
▁mem	-1383
ку	-1384
▁tip	-1385
▁ejempl	-1386
▁control	-1387
▁questions	-1388
▁natur	-1389
iting	-1390
▁correct	-1391
си	-1392
▁zu	-1393
▁soft	-1394
ton	-1395
(\"	-1396
▁value	-1397
]\	-1398
ames	-1399
▁7	-1400
▁mat	-1401
ча	-1402
▁better	-1403
▁importante	-1404
ization	-1405
000	-1406
cc	-1407
ных	-1408
▁Com	-1409
ah	-1410
ash	-1411
af	-1412
▁user	-1413
1,	-1414
▁rest	-1415
▁impact	-1416
▁learn	-1417
▁ing	-1418
atures	-1419
▁input	-1420
▁princi	-1421
itive	-1422
▁sugg	-1423
▁hacer	-1424
itar	-1425
со	-1426
▁something	-1427
▁keep	-1428
▁environ	-1429
lement	-1430
▁leg	-1431
▁tell	-1432
▁econ	-1433
istem	-1434
ivo	-1435
▁test	-1436
led	-1437
▁always	-1438
ats	-1439
▁Pr	-1440
▁return	-1441
▁suggest	-1442
▁Z	-1443
ability	-1444
ну	-1445
▁web	-1446
ives	-1447
▁making	-1448
▁So	-1449
uch	-1450
▁mi	-1451
▁Open	-1452
▁leng	-1453
▁ident	-1454
▁These	-1455
ense	-1456
▁trad	-1457
▁pract	-1458
ply	-1459
▁large	-1460
▁sig	-1461
self	-1462
▁applic	-1463
uss	-1464
izar	-1465
ду	-1466
▁pero	-1467
igo	-1468
▁ant	-1469
press	-1470
ital	-1471
▁access	-1472
els	-1473
▁without	-1474
lev	-1475
▁elec	-1476
fect	-1477
ants	-1478
ocus	-1479
лю	-1480
▁publ	-1481
át	-1482
▁“	-1483
▁inc	-1484
▁anal	-1485
▁friend	-1486
▁project	-1487
▁tool	-1488
▁Do	-1489
▁repres	-1490
gl	-1491
▁simple	-1492
ural	-1493
▁tom	-1494
▁это	-1495
▁infl	-1496
enta	-1497
сть	-1498
▁/	-1499
▁т	-1500
▁podr	-1501
--------	-1502
▁common	-1503
▁iss	-1504
thers	-1505
▁made	-1506
▁бы	-1507
▁trav	-1508
ommend	-1509
roll	-1510
ino	-1511
▁sever	-1512
itional	-1513
▁material	-1514
cion	-1515
▁men	-1516
▁chang	-1517
лу	-1518
▁sci	-1519
itt	-1520
nEn	-1521
hor	-1522
▁fut	-1523
▁respect	-1524
▁experience	-1525
▁stat	-1526
ше	-1527
ito	-1528
oup	-1529
▁те	-1530
▁arr	-1531
ги	-1532
aut	-1533
▁improve	-1534
▁В	-1535
=\"	-1536
ana	-1537
ís	-1538
ieve	-1539
ew	-1540
ains	-1541
▁energy	-1542
▁enc	-1543
▁recommend	-1544
▁free	-1545
▁tener	-1546
tract	-1547
ilar	-1548
ator	-1549
▁current	-1550
://	-1551
ста	-1552
ши	-1553
▁hard	-1554
му	-1555
▁для	-1556
▁grow	-1557
lt	-1558
▁phys	-1559
▁cada	-1560
▁sistem	-1561
жи	-1562
ena	-1563
imes	-1564
▁respons	-1565
ava	-1566
▁again	-1567
me	-1568
за	-1569
ще	-1570
▁several	-1571
▁из	-1572
▁care	-1573
uel	-1574
ament	-1575
val	-1576
▁à	-1577
!\	-1578
▁saf	-1579
▁determ	-1580
▁situ	-1581
▁place	-1582
▁inte	-1583
▁Yes	-1584
na	-1585
ão	-1586
▁apr	-1587
▁during	-1588
▁ist	-1589
▁ll	-1590
▁things	-1591
▁idea	-1592
che	-1593
▁dev	-1594
сто	-1595
▁say	-1596
jo	-1597
▁electr	-1598
▁environment	-1599
▁datos	-1600
▁П	-1601
emember	-1602
ua	-1603
ately	-1604
8.	-1605
▁others	-1606
▁9	-1607
uev	-1608
▁level	-1609
▁da	-1610
▁custom	-1611
earch	-1612
▁ear	-1613
▁allow	-1614
for	-1615
quí	-1616
▁write	-1617
▁Fr	-1618
▁log	-1619
ca	-1620
▁net	-1621
▁caus	-1622
ram	-1623
ills	-1624
▁after	-1625
▁Pl	-1626
gar	-1627
▁Se	-1628
▁decis	-1629
▁software	-1630
ные	-1631
▁red	-1632
▁ф	-1633
▁histor	-1634
▁invest	-1635
ope	-1636
arte	-1637
icht	-1638
▁mot	-1639
▁ensure	-1640
▁ris	-1641
▁super	-1642
iter	-1643
▁concept	-1644
▁Cl	-1645
iving	-1646
▁must	-1647
avor	-1648
▁objet	-1649
▁puedes	-1650
▁found	-1651
▁profess	-1652
▁Cre	-1653
onse	-1654
uego	-1655
▁ask	-1656
▁webs	-1657
▁mas	-1658
▁chall	-1659
▁given	-1660
▁focus	-1661
▁range	-1662
ency	-1663
▁está	-1664
▁child	-1665
acy	-1666
ming	-1667
imiento	-1668
ió	-1669
се	-1670
▁able	-1671
▁ment	-1672
ze	-1673
▁Si	-1674
view	-1675
▁story	-1676
_1	-1677
ais	-1678
▁Be	-1679
▁algor	-1680
▁color	-1681
▁forma	-1682
▁various	-1683
▁ре	-1684
The	-1685
ued	-1686
</	-1687
▁still	-1688
▁mis	-1689
bar	-1690
▁Sh	-1691
unt	-1692
uir	-1693
▁countr	-1694
iar	-1695
▁cost	-1696
▁ва	-1697
▁mil	-1698
ought	-1699
▁years	-1700
▁note	-1701
▁mach	-1702
air	-1703
ño	-1704
▁significant	-1705
▁Some	-1706
▁those	-1707
▁ejemplo	-1708
▁orig	-1709
net	-1710
ull	-1711
▁air	-1712
зо	-1713
ands	-1714
lect	-1715
ww	-1716
▁pur	-1717
▁arg	-1718
ét	-1719
ной	-1720
ared	-1721
▁doc	-1722
▁Gr	-1723
▁detail	-1724
tps	-1725
▁il	-1726
▁under	-1727
▁prefer	-1728
▁self	-1729
▁avail	-1730
abil	-1731
ско	-1732
▁vol	-1733
▁const	-1734
utes	-1735
вать	-1736
ola	-1737
yle	-1738
▁book	-1739
▁connect	-1740
▁steps	-1741
▁until	-1742
▁кото	-1743
▁exp	-1744
▁him	-1745
▁también	-1746
▁prop	-1747
▁este	-1748
\":	-1749
▁sl	-1750
usion	-1751
▁research	-1752
ems	-1753
gen	-1754
▁defin	-1755
▁che	-1756
ination	-1757
▁And	-1758
▁.	-1759
ape	-1760
▁er	-1761
▁soci	-1762
▁did	-1763
▁du	-1764
▁body	-1765
▁gl	-1766
▁development	-1767
abaj	-1768
iempo	-1769
▁needs	-1770
▁context	-1771
ients	-1772
▁character	-1773
ер	-1774
▁words	-1775
▁natural	-1776
▁less	-1777
▁univers	-1778
itor	-1779
▁content	-1780
▁Sp	-1781
▁г	-1782
▁We	-1783
▁mar	-1784
▁local	-1785
joy	-1786
iate	-1787
▁someone	-1788
iques	-1789
▁cual	-1790
▁disc	-1791
ield	-1792
▁vida	-1793
ream	-1794
éc	-1795
жно	-1796
▁amb	-1797
▁company	-1798
▁implement	-1799
ason	-1800
ciones	-1801
▁change	-1802
ists	-1803
▁desar	-1804
ál	-1805
▁reci	-1806
▁professional	-1807
ithm	-1808
▁gre	-1809
▁On	-1810
antes	-1811
▁public	-1812
br	-1813
▁sel	-1814
▁раз	-1815
▁ten	-1816
▁Por	-1817
▁}\	-1818
▁Im	-1819
▁princip	-1820
▁econom	-1821
not	-1822
med	-1823
▁else	-1824
▁:	-1825
▁den	-1826
▁refer	-1827
PI	-1828
▁understanding	-1829
anto	-1830
▁ис	-1831
▁esta	-1832
▁Go	-1833
▁hor	-1834
▁dos	-1835
amiento	-1836
▁market	-1837
less	-1838
▁//	-1839
ances	-1840
▁especial	-1841
▁mit	-1842
▁certain	-1843
▁suc	-1844
▁video	-1845
let	-1846
▁tiempo	-1847
▁ways	-1848
▁output	-1849
▁temper	-1850
▁show	-1851
▁interact	-1852
ют	-1853
ного	-1854
▁trabaj	-1855
▁now	-1856
▁conoc	-1857
nRemember	-1858
nim	-1859
ek	-1860
):\	-1861
aces	-1862
ained	-1863
▁print	-1864
▁factors	-1865
idos	-1866
▁fre	-1867
▁similar	-1868
▁task	-1869
сь	-1870
play	-1871
▁necess	-1872
word	-1873
▁unique	-1874
▁describ	-1875
▁Br	-1876
▁move	-1877
▁mess	-1878
▁cir	-1879
▁too	-1880
▁pour	-1881
.\"\	-1882
▁tal	-1883
ificial	-1884
ita	-1885
ientes	-1886
-1	-1887
ür	-1888
▁struct	-1889
ium	-1890
▁Use	-1891
▁tiene	-1892
uck	-1893
▁present	-1894
▁sound	-1895
cing	-1896
▁systems	-1897
ours	-1898
tro	-1899
ication	-1900
rite	-1901
▁install	-1902
eta	-1903
ots	-1904
▁ya	-1905
▁That	-1906
▁К	-1907
ird	-1908
ican	-1909
▁mov	-1910
▁información	-1911
▁available	-1912
▁business	-1913
▁lik	-1914
▁behav	-1915
ionally	-1916
可以	-1917
▁cur	-1918
▁X	-1919
▁order	-1920
▁team	-1921
cle	-1922
ote	-1923
ades	-1924
▁gen	-1925
▁represent	-1926
▁mag	-1927
▁sor	-1928
▁aplic	-1929
of	-1930
▁nú	-1931
▁С	-1932
▁pap	-1933
ouse	-1934
▁line	-1935
ites	-1936
ove	-1937
ories	-1938
▁called	-1939
▁strong	-1940
▁home	-1941
li	-1942
▁training	-1943
▁manag	-1944
ja	-1945
ush	-1946
ool	-1947
ный	-1948
▁pregun	-1949
▁industr	-1950
vert	-1951
irt	-1952
sistant	-1953
▁relations	-1954
ases	-1955
undo	-1956
▁dig	-1957
▁pal	-1958
▁priv	-1959
▁amount	-1960
▁ben	-1961
▁err	-1962
▁features	-1963
▁как	-1964
▁Des	-1965
nU	-1966
amos	-1967
2,	-1968
▁event	-1969
oh	-1970
▁Н	-1971
▁means	-1972
▁challeng	-1973
▁libr	-1974
▁diffic	-1975
▁Please	-1976
▁integr	-1977
▁resources	-1978
iva	-1979
ude	-1980
ется	-1981
▁online	-1982
ements	-1983
ít	-1984
▁sentence	-1985
++	-1986
ief	-1987
way	-1988
▁conc	-1989
▁plat	-1990
▁otros	-1991
▁tus	-1992
▁another	-1993
▁influ	-1994
▁assist	-1995
▁cook	-1996
mos	-1997
ños	-1998
▁case	-1999
▁element	-2000
In	-2001
ере	-2002
ule	-2003
▁music	-2004
uz	-2005
▁cause	-2006
▁1.	-2007
gin	-2008
▁please	-2009
вы	-2010
▁why	-2011
▁calcul	-2012
ser	-2013
car	-2014
▁effic	-2015
▁multip	-2016
da	-2017
xim	-2018
▁contrib	-2019
uring	-2020
Qu	-2021
▁muy	-2022
ем	-2023
▁dog	-2024
▁skills	-2025
23	-2026
га	-2027
▁dise	-2028
▁contr	-2029
▁dest	-2030
sh	-2031
▁Le	-2032
▁lengu	-2033
0,	-2034
ified	-2035
▁request	-2036
oney	-2037
raph	-2038
gether	-2039
▁approach	-2040
▁together	-2041
▁algorithm	-2042
nEs	-2043
urity	-2044
▁pain	-2045
▁ма	-2046
▁success	-2047
▁aff	-2048
▁actual	-2049
▁difficult	-2050
▁ess	-2051
▁image	-2052
▁Qu	-2053
▁regular	-2054
▁computer	-2055
▁manera	-2056
ты	-2057
digo	-2058
▁remo	-2059
▁ach	-2060
па	-2061
▁crear	-2062
ски	-2063
ivos	-2064
тель	-2065
▁stand	-2066
▁Ap	-2067
vol	-2068
▁sea	-2069
just	-2070
▁final	-2071
\".	-2072
ugar	-2073
▁offer	-2074
▁contin	-2075
▁aud	-2076
ня	-2077
leg	-2078
▁autom	-2079
▁бо	-2080
▁website	-2081
ux	-2082
▁script	-2083
▁Los	-2084
▁das	-2085
wh	-2086
▁looking	-2087
▁command	-2088
▁arch	-2089
▁mind	-2090
).\	-2091
▁ge	-2092
▁ideas	-2093
9.	-2094
ltim	-2095
▁Java	-2096
▁check	-2097
('	-2098
▁relationship	-2099
▁particular	-2100
▁But	-2101
▁lí	-2102
▁sens	-2103
rop	-2104
ogle	-2105
▁history	-2106
ws	-2107
ств	-2108
ON	-2109
epend	-2110
ery	-2111
fort	-2112
▁due	-2113
▁qué	-2114
▁или	-2115
це	-2116
▁kind	-2117
▁document	-2118
▁yourself	-2119
мен	-2120
▁го	-2121
▁compr	-2122
onde	-2123
bol	-2124
ether	-2125
vis	-2126
ello	-2127
▁neg	-2128
▁base	-2129
▁options	-2130
пе	-2131
itch	-2132
▁sym	-2133
▁código	-2134
▁пре	-2135
▁hy	-2136
vern	-2137
▁bat	-2138
▁comun	-2139
▁recom	-2140
orn	-2141
arse	-2142
elig	-2143
arios	-2144
hr	-2145
гу	-2146
▁continu	-2147
▁convers	-2148
пи	-2149
▁fur	-2150
▁von	-2151
ER	-2152
▁old	-2153
▁eine	-2154
▁really	-2155
ience	-2156
▁cómo	-2157
ploy	-2158
▁changes	-2159
▁sistema	-2160
▁strateg	-2161
▁When	-2162
▁examples	-2163
ides	-2164
▁tar	-2165
▁types	-2166
▁abs	-2167
omb	-2168
::	-2169
▁non	-2170
▁personas	-2171
nThis	-2172
ires	-2173
▁compon	-2174
▁come	-2175
▁educ	-2176
▁accur	-2177
▁Let	-2178
ength	-2179
ición	-2180
▁estr	-2181
▁pred	-2182
▁ú	-2183
nY	-2184
▁mundo	-2185
▁works	-2186
▁address	-2187
▁technology	-2188
encias	-2189
▁within	-2190
▁prevent	-2191
▁reduce	-2192
▁head	-2193
thing	-2194
abor	-2195
tain	-2196
ted	-2197
▁prob	-2198
▁sing	-2199
▁conse	-2200
▁future	-2201
▁norm	-2202
▁area	-2203
ulation	-2204
ista	-2205
▁harm	-2206
▁second	-2207
▁sw	-2208
face	-2209
▁fac	-2210
▁tec	-2211
los	-2212
▁consum	-2213
nimport	-2214
▁explain	-2215
...	-2216
ano	-2217
▁short	-2218
▁space	-2219
▁machine	-2220
▁anything	-2221
▁minutes	-2222
nG	-2223
ample	-2224
portun	-2225
amp	-2226
las	-2227
▁pi	-2228
▁size	-2229
▁performance	-2230
▁cond	-2231
ensive	-2232
▁artificial	-2233
▁¡	-2234
▁sigu	-2235
ellig	-2236
▁enjoy	-2237
bal	-2238
▁step	-2239
nAs	-2240
▁issues	-2241
▁jo	-2242
▁response	-2243
ту	-2244
ombre	-2245
▁source	-2246
▁users	-2247
▁love	-2248
▁100	-2249
▁mom	-2250
ula	-2251
▁Me	-2252
ling	-2253
▁lot	-2254
lich	-2255
▁platform	-2256
▁Your	-2257
▁cour	-2258
▁tasks	-2259
▁Amer	-2260
cil	-2261
▁18	-2262
▁finan	-2263
▁polit	-2264
▁state	-2265
▁table	-2266
ee	-2267
tead	-2268
▁qui	-2269
▁uses	-2270
ledge	-2271
▁cuenta	-2272
▁family	-2273
PT	-2274
▁div	-2275
▁role	-2276
ired	-2277
▁allows	-2278
▁lab	-2279
▁да	-2280
щи	-2281
▁nuev	-2282
ditionally	-2283
▁puedo	-2284
oot	-2285
77	-2286
eter	-2287
▁une	-2288
▁но	-2289
▁clim	-2290
▁break	-2291
▁become	-2292
▁ht	-2293
ards	-2294
emás	-2295
ret	-2296
▁incluy	-2297
▁ability	-2298
▁multiple	-2299
min	-2300
▁algunos	-2301
▁diferentes	-2302
utr	-2303
▁bien	-2304
▁appe	-2305
adores	-2306
cal	-2307
ext	-2308
edad	-2309
nIt	-2310
contr	-2311
▁city	-2312
▁cannot	-2313
ma	-2314
▁values	-2315
▁variety	-2316
cy	-2317
duct	-2318
жа	-2319
▁services	-2320
▁bro	-2321
▁Sch	-2322
▁hope	-2323
бы	-2324
▁likely	-2325
▁proces	-2326
▁}	-2327
▁sorry	-2328
▁express	-2329
▁network	-2330
▁behavior	-2331
▁Wor	-2332
▁meas	-2333
▁numbers	-2334
ping	-2335
erson	-2336
▁clean	-2337
lex	-2338
▁API	-2339
▁app	-2340
5,	-2341
▁|\	-2342
са	-2343
▁gran	-2344
▁hasta	-2345
ogn	-2346
▁bal	-2347
▁against	-2348
name	-2349
▁cos	-2350
▁word	-2351
utions	-2352
▁optim	-2353
▁Or	-2354
entr	-2355
anced	-2356
▁constr	-2357
▁función	-2358
illa	-2359
▁favor	-2360
зы	-2361
tal	-2362
ined	-2363
▁working	-2364
▁cell	-2365
▁distrib	-2366
▁О	-2367
▁speed	-2368
▁Am	-2369
▁ин	-2370
):	-2371
▁occ	-2372
▁programming	-2373
ait	-2374
▁special	-2375
▁ou	-2376
▁considered	-2377
dr	-2378
про	-2379
▁view	-2380
▁group	-2381
▁avoid	-2382
íst	-2383
ights	-2384
▁которы	-2385
▁US	-2386
▁three	-2387
▁tools	-2388
inux	-2389
▁grand	-2390
ml	-2391
жет	-2392
▁solo	-2393
▁generate	-2394
▁Sin	-2395
ention	-2396
▁sense	-2397
▁physical	-2398
AI	-2399
▁thought	-2400
▁media	-2401
▁service	-2402
▁My	-2403
emos	-2404
▁auf	-2405
oms	-2406
▁protect	-2407
▁etc	-2408
▁imag	-2409
▁reach	-2410
▁provides	-2411
▁next	-2412
▁capac	-2413
ently	-2414
ection	-2415
()\	-2416
anz	-2417
▁exc	-2418
ru	-2419
ift	-2420
▁ме	-2421
by	-2422
▁vi	-2423
▁low	-2424
js	-2425
▁funct	-2426
▁individuals	-2427
lar	-2428
idence	-2429
▁benef	-2430
поль	-2431
##	-2432
iod	-2433
ury	-2434
arth	-2435
▁math	-2436
▁summ	-2437
▁lay	-2438
ector	-2439
ús	-2440
eros	-2441
▁relev	-2442
▁engine	-2443
leep	-2444
▁past	-2445
▁port	-2446
back	-2447
▁embar	-2448
▁field	-2449
▁She	-2450
▁scient	-2451
сли	-2452
▁clear	-2453
▁quality	-2454
▁search	-2455
ped	-2456
pon	-2457
cción	-2458
ํา	-2459
▁eth	-2460
▁gust	-2461
man	-2462
ícul	-2463
▁money	-2464
inar	-2465
iste	-2466
об	-2467
▁cel	-2468
▁typically	-2469
▁pan	-2470
▁depending	-2471
▁models	-2472
iver	-2473
▁going	-2474
▁Cons	-2475
priate	-2476
▁creating	-2477
▁account	-2478
▁mill	-2479
▁necessary	-2480
50	-2481
▁further	-2482
au	-2483
ney	-2484
ook	-2485
use	-2486
inter	-2487
▁knowledge	-2488
oph	-2489
emat	-2490
▁post	-2491
▁helps	-2492
▁ey	-2493
▁cat	-2494
▁sun	-2495
▁Make	-2496
▁divers	-2497
ibil	-2498
▁pay	-2499
▁persona	-2500
าร	-2501
▁ci	-2502
ai	-2503
▁emot	-2504
▁happy	-2505
come	-2506
idas	-2507
▁glo	-2508
▁mayor	-2509
ología	-2510
▁Em	-2511
ться	-2512
▁Col	-2513
▁side	-2514
▁server	-2515
eces	-2516
ively	-2517
▁veget	-2518
▁Additionally	-2519
мы	-2520
▁gar	-2521
nn	-2522
▁rad	-2523
wards	-2524
▁encontr	-2525
ally	-2526
▁mor	-2527
quier	-2528
▁original	-2529
verage	-2530
▁treat	-2531
ак	-2532
place	-2533
▁pack	-2534
Script	-2535
▁govern	-2536
ele	-2537
enn	-2538
▁Are	-2539
▁moment	-2540
ume	-2541
▁tecn	-2542
ga	-2543
▁\\	-2544
▁embargo	-2545
▁сво	-2546
▁song	-2547
▁lugar	-2548
▁?\	-2549
▁bit	-2550
apt	-2551
▁Bl	-2552
ancia	-2553
▁deep	-2554
▁modern	-2555
▁contain	-2556
▁trying	-2557
ей	-2558
▁200	-2559
▁true	-2560
uras	-2561
▁rep	-2562
col	-2563
▁wid	-2564
óm	-2565
вет	-2566
andom	-2567
▁never	-2568
▁quick	-2569
▁enough	-2570
ck	-2571
▁dom	-2572
icate	-2573
pose	-2574
unto	-2575
▁press	-2576
▁lenguaje	-2577
▁activities	-2578
tructions	-2579
▁respuest	-2580
print	-2581
ibility	-2582
▁United	-2583
▁security	-2584
▁target	-2585
py	-2586
ids	-2587
lic	-2588
date	-2589
11	-2590
▁having	-2591
▁исполь	-2592
____	-2593
icle	-2594
▁job	-2595
▁involves	-2596
sel	-2597
▁friends	-2598
▁meaning	-2599
▁estos	-2600
▁condit	-2601
▁structure	-2602
▁programación	-2603
▁ayudar	-2604
▁consult	-2605
▁bot	-2606
▁put	-2607
▁positive	-2608
aw	-2609
Qué	-2610
the	-2611
▁os	-2612
ption	-2613
▁cant	-2614
▁easy	-2615
aff	-2616
▁fund	-2617
▁stay	-2618
▁usar	-2619
▁prev	-2620
▁си	-2621
itle	-2622
▁increase	-2623
aring	-2624
▁vary	-2625
^2	-2626
▁inf	-2627
▁Engl	-2628
▁tre	-2629
ución	-2630
▁explor	-2631
raw	-2632
indows	-2633
nWh	-2634
▁id	-2635
▁resol	-2636
▁remember	-2637
▁sab	-2638
acters	-2639
▁areas	-2640
▁style	-2641
▁study	-2642
▁choose	-2643
ecut	-2644
istr	-2645
,\"	-2646
▁war	-2647
▁designed	-2648
omet	-2649
▁desde	-2650
▁techniques	-2651
▁makes	-2652
▁string	-2653
amm	-2654
▁todo	-2655
▁respond	-2656
зу	-2657
▁fu	-2658
aging	-2659
▁While	-2660
nLa	-2661
ífic	-2662
▁equip	-2663
load	-2664
▁uno	-2665
oud	-2666
▁12	-2667
▁exerc	-2668
▁since	-2669
▁Assistant	-2670
▁lista	-2671
▁times	-2672
ilos	-2673
▁Google	-2674
▁utiliza	-2675
izing	-2676
▁cop	-2677
gos	-2678
▁quant	-2679
▁terms	-2680
tas	-2681
18	-2682
▁Д	-2683
▁так	-2684
▁helpful	-2685
ST	-2686
▁ви	-2687
▁vez	-2688
▁intellig	-2689
lish	-2690
▁oil	-2691
tring	-2692
▁application	-2693
ube	-2694
ían	-2695
aries	-2696
python	-2697
▁todos	-2698
▁building	-2699
ным	-2700
▁Create	-2701
time	-2702
▁Euro	-2703
raft	-2704
uedes	-2705
▁series	-2706
ysis	-2707
▁intro	-2708
▁community	-2709
ane	-2710
▁bi	-2711
▁colum	-2712
echan	-2713
aves	-2714
land	-2715
ство	-2716
ording	-2717
▁conditions	-2718
ML	-2719
ric	-2720
▁palab	-2721
▁total	-2722
ี่	-2723
aps	-2724
▁algo	-2725
▁applications	-2726
▁á	-2727
▁takes	-2728
ama	-2729
chen	-2730
▁mal	-2731
▁ingred	-2732
อง	-2733
aur	-2734
ции	-2735
path	-2736
▁Para	-2737
eno	-2738
ientos	-2739
une	-2740
▁consist	-2741
▁message	-2742
istic	-2743
esh	-2744
▁Linux	-2745
▁historia	-2746
▁30	-2747
▁ni	-2748
ules	-2749
▁usu	-2750
▁explic	-2751
▁includes	-2752
endo	-2753
▁tienes	-2754
▁prompt	-2755
▁provided	-2756
▁risk	-2757
10.	-2758
tes	-2759
▁dish	-2760
▁terr	-2761
▁goals	-2762
▁дру	-2763
▁бу	-2764
▁Add	-2765
▁doesn	-2766
▁option	-2767
▁points	-2768
/2	-2769
▁tipo	-2770
▁rob	-2771
▁desarroll	-2772
tle	-2773
aría	-2774
▁characters	-2775
itect	-2776
▁estud	-2777
▁famil	-2778
▁&	-2779
nEl	-2780
▁Earth	-2781
▁mant	-2782
▁polic	-2783
▁kann	-2784
▁nature	-2785
▁basic	-2786
▁identify	-2787
▁wal	-2788
3,	-2789
ken	-2790
▁tur	-2791
▁country	-2792
ole	-2793
uce	-2794
▁М	-2795
arme	-2796
va	-2797
aster	-2798
▁sort	-2799
▁expect	-2800
▁Ph	-2801
▁ли	-2802
▁dete	-2803
▁fall	-2804
▁methods	-2805
▁exact	-2806
▁plant	-2807
▁altern	-2808
▁под	-2809
▁ich	-2810
▁visual	-2811
▁writing	-2812
▁products	-2813
▁«	-2814
nea	-2815
。"}	-2816
▁evol	-2817
▁school	-2818
\".\	-2819
ived	-2820
▁Write	-2821
▁scre	-2822
▁complet	-2823
▁elements	-2824
▁desc	-2825
▁whether	-2826
ibr	-2827
▁fue	-2828
▁cuando	-2829
ín	-2830
▁dass	-2831
▁subject	-2832
aba	-2833
▁dam	-2834
▁país	-2835
SS	-2836
▁especially	-2837
▁rece	-2838
▁limit	-2839
▁humans	-2840
▁HT	-2841
▁squ	-2842
▁travel	-2843
▁heat	-2844
▁aprender	-2845
гра	-2846
▁arm	-2847
▁format	-2848
illed	-2849
▁может	-2850
gre	-2851
▁transform	-2852
▁New	-2853
▁sust	-2854
▁discuss	-2855
▁appropriate	-2856
▁traditional	-2857
soci	-2858
▁period	-2859
set	-2860
oman	-2861
over	-2862
▁ir	-2863
amed	-2864
kt	-2865
▁А	-2866
yr	-2867
ismo	-2868
mero	-2869
ización	-2870
Cu	-2871
▁—	-2872
▁0.	-2873
▁prec	-2874
ece	-2875
▁separ	-2876
▁email	-2877
jos	-2878
▁лю	-2879
▁sem	-2880
▁guid	-2881
▁heart	-2882
▁additional	-2883
aro	-2884
ches	-2885
nV	-2886
rem	-2887
▁big	-2888
▁donde	-2889
ny	-2890
itos	-2891
▁obt	-2892
ering	-2893
ittle	-2894
▁aspect	-2895
▁propor	-2896
▁getting	-2897
▁mejorar	-2898
QL	-2899
่า	-2900
cover	-2901
▁tend	-2902
0.	-2903
▁incor	-2904
▁events	-2905
▁introdu	-2906
▁results	-2907
▁Dis	-2908
▁sleep	-2909
▁choice	-2910
▁card	-2911
▁utilizar	-2912
▁plus	-2913
▁single	-2914
nTo	-2915
▁share	-2916
▁intern	-2917
ор	-2918
ograph	-2919
▁One	-2920
▁intelig	-2921
▁brow	-2922
nEx	-2923
▁Why	-2924
▁blo	-2925
cription	-2926
ное	-2927
▁transl	-2928
▁usually	-2929
-2	-2930
▁hot	-2931
ground	-2932
▁version	-2933
▁challenges	-2934
ival	-2935
▁egg	-2936
▁files	-2937
▁States	-2938
add	-2939
alu	-2940
▁Esto	-2941
▁vel	-2942
▁legal	-2943
▁mechan	-2944
iles	-2945
▁init	-2946
action	-2947
ção	-2948
▁last	-2949
▁frame	-2950
▁problems	-2951
atic	-2952
▁nicht	-2953
▁quier	-2954
▁número	-2955
care	-2956
▁Ind	-2957
https	-2958
▁Aquí	-2959
ler	-2960
▁compet	-2961
▁cualquier	-2962
▁tanto	-2963
ajor	-2964
head	-2965
-3	-2966
4,	-2967
чески	-2968
ientras	-2969
▁turn	-2970
▁virt	-2971
▁interpre	-2972
\")\	-2973
▁fal	-2974
▁prot	-2975
light	-2976
▁concl	-2977
▁English	-2978
▁Sie	-2979
▁financial	-2980
nIf	-2981
вля	-2982
▁relig	-2983
▁related	-2984
▁sat	-2985
▁algunas	-2986
▁Chr	-2987
▁done	-2988
▁doing	-2989
▁action	-2990
йте	-2991
▁course	-2992
anks	-2993
▁minim	-2994
▁poder	-2995
▁weight	-2996
▁opportun	-2997
▁At	-2998
▁mix	-2999
▁teor	-3000
▁affect	-3001
▁reason	-3002
point	-3003
▁así	-3004
ний	-3005
ocol	-3006
based	-3007
▁Once	-3008
сно	-3009
ters	-3010
▁für	-3011
▁все	-3012
▁store	-3013
▁record	-3014
▁sex	-3015
▁aprend	-3016
▁safety	-3017
▁running	-3018
▁healthy	-3019
▁perspect	-3020
nJ	-3021
▁ded	-3022
▁industry	-3023
ological	-3024
▁situation	-3025
etic	-3026
ission	-3027
▁taking	-3028
ря	-3029
esp	-3030
fter	-3031
zar	-3032
umen	-3033
▁begin	-3034
зи	-3035
▁World	-3036
▁durante	-3037
▁library	-3038
IN	-3039
一个	-3040
ona	-3041
▁años	-3042
▁feed	-3043
▁employ	-3044
tre	-3045
▁bar	-3046
▁config	-3047
igher	-3048
▁comfort	-3049
board	-3050
▁left	-3051
▁phot	-3052
▁JavaScript	-3053
▁days	-3054
ды	-3055
▁otro	-3056
▁black	-3057
▁rather	-3058
▁contact	-3059
pa	-3060
▁debe	-3061
ending	-3062
óg	-3063
▁caracter	-3064
day	-3065
www	-3066
▁ciud	-3067
AT	-3068
▁away	-3069
▁tienen	-3070
▁vo	-3071
▁buy	-3072
▁día	-3073
▁benefits	-3074
▁cy	-3075
ibles	-3076
▁agua	-3077
▁review	-3078
▁regul	-3079
▁luz	-3080
▁пере	-3081
▁Expl	-3082
],	-3083
odo	-3084
▁wide	-3085
▁efect	-3086
▁children	-3087
▁determine	-3088
▁din	-3089
cular	-3090
▁chem	-3091
▁details	-3092
▁efficient	-3093
▁instead	-3094
asing	-3095
▁https	-3096
▁normal	-3097
sp	-3098
ecu	-3099
▁Per	-3100
▁stop	-3101
вле	-3102
side	-3103
elling	-3104
ที่	-3105
▁(19	-3106
▁extr	-3107
▁meet	-3108
▁decir	-3109
▁particip	-3110
▁15	-3111
▁via	-3112
мер	-3113
▁parte	-3114
▁Dr	-3115
▁capt	-3116
▁línea	-3117
▁match	-3118
ramient	-3119
▁needed	-3120
▁achieve	-3121
AN	-3122
▁sn	-3123
▁Las	-3124
▁fig	-3125
itten	-3126
▁materials	-3127
▁herramient	-3128
oco	-3129
▁esto	-3130
▁path	-3131
▁thing	-3132
▁variable	-3133
hol	-3134
pero	-3135
▁Mar	-3136
▁law	-3137
ister	-3138
▁opin	-3139
▁growth	-3140
▁cup	-3141
▁film	-3142
▁least	-3143
nHere	-3144
▁said	-3145
omen	-3146
▁han	-3147
▁pel	-3148
ification	-3149
▁stor	-3150
▁experiment	-3151
iere	-3152
▁Man	-3153
▁aquí	-3154
▁sich	-3155
▁games	-3156
▁salud	-3157
▁escrib	-3158
▁global	-3159
▁jour	-3160
nQ	-3161
key	-3162
▁acr	-3163
▁evalu	-3164
▁diet	-3165
▁instr	-3166
▁juego	-3167
▁theory	-3168
12	-3169
iction	-3170
▁habil	-3171
▁items	-3172
num	-3173
▁hours	-3174
][	-3175
tar	-3176
▁По	-3177
▁де	-3178
data	-3179
▁mathemat	-3180
nov	-3181
▁today	-3182
▁age	-3183
▁могу	-3184
▁safe	-3185
ension	-3186
▁veloc	-3187
▁medical	-3188
anger	-3189
▁wind	-3190
▁higher	-3191
una	-3192
▁python	-3193
▁cultural	-3194
ша	-3195
▁ps	-3196
▁syn	-3197
▁Además	-3198
▁location	-3199
▁requirements	-3200
:**	-3201
▁By	-3202
acks	-3203
▁analy	-3204
▁major	-3205
ór	-3206
ono	-3207
▁хо	-3208
▁select	-3209
▁digital	-3210
าม	-3211
oma	-3212
ajes	-3213
unch	-3214
▁muchos	-3215
▁fa	-3216
cent	-3217
▁camb	-3218
uments	-3219
▁Т	-3220
сле	-3221
▁countries	-3222
▁government	-3223
ha	-3224
▁==	-3225
▁ми	-3226
aling	-3227
▁polít	-3228
▁,	-3229
▁valid	-3230
▁posible	-3231
▁practice	-3232
▁temperature	-3233
▁ве	-3234
▁uso	-3235
AR	-3236
▁associ	-3237
ómo	-3238
gest	-3239
▁pes	-3240
▁full	-3241
▁interested	-3242
ohn	-3243
ties	-3244
▁clos	-3245
▁everyone	-3246
works	-3247
▁ful	-3248
ieren	-3249
▁encu	-3250
▁live	-3251
▁little	-3252
▁languages	-3253
kay	-3254
▁flow	-3255
tep	-3256
▁16	-3257
iene	-3258
▁teach	-3259
▁podría	-3260
ilt	-3261
▁са	-3262
▁viol	-3263
▁mic	-3264
▁experiences	-3265
ivel	-3266
itions	-3267
▁fuer	-3268
▁paper	-3269
▁adjust	-3270
ám	-3271
▁warm	-3272
▁ground	-3273
▁management	-3274
LE	-3275
▁confl	-3276
▁produce	-3277
▁progress	-3278
▁intelligence	-3279
ora	-3280
resp	-3281
▁Cal	-3282
▁near	-3283
▁white	-3284
ivil	-3285
▁кон	-3286
▁coll	-3287
▁prior	-3288
ficial	-3289
ends	-3290
ises	-3291
▁offers	-3292
▁powerful	-3293
▁attention	-3294
_2	-3295
▁alm	-3296
▁effective	-3297
▁се	-3298
▁esc	-3299
▁otras	-3300
▁mental	-3301
▁objects	-3302
▁investig	-3303
▁encontrar	-3304
▁llam	-3305
▁recogn	-3306
▁IA	-3307
▁gas	-3308
▁society	-3309
▁decision	-3310
▁array	-3311
▁colle	-3312
▁created	-3313
▁analysis	-3314
▁ча	-3315
▁voc	-3316
ither	-3317
ablish	-3318
▁internet	-3319
су	-3320
▁dar	-3321
▁зна	-3322
▁chat	-3323
iencia	-3324
ров	-3325
▁beaut	-3326
▁graph	-3327
▁relevant	-3328
▁depends	-3329
▁position	-3330
odr	-3331
ска	-3332
▁cut	-3333
▁advice	-3334
▁mientras	-3335
▁recomend	-3336
OS	-3337
▁fís	-3338
▁pep	-3339
▁error	-3340
nYou	-3341
▁nos	-3342
cel	-3343
▁vous	-3344
▁above	-3345
▁maintain	-3346
ball	-3347
▁mass	-3348
▁block	-3349
▁science	-3350
▁argument	-3351
log	-3352
uild	-3353
▁lat	-3354
▁través	-3355
abase	-3356
▁respuesta	-3357
▁Chat	-3358
ius	-3359
▁cab	-3360
▁max	-3361
uesto	-3362
ificar	-3363
▁recipe	-3364
▁summary	-3365
St	-3366
ron	-3367
-4	-3368
би	-3369
ке	-3370
▁ста	-3371
▁permit	-3372
▁50	-3373
▁ampl	-3374
▁quickly	-3375
▁proporcion	-3376
▁slow	-3377
pir	-3378
▁actions	-3379
▁sources	-3380
▁continue	-3381
ges	-3382
zen	-3383
▁overall	-3384
▁assistant	-3385
16	-3386
En	-3387
ID	-3388
▁levels	-3389
▁starting	-3390
▁ur	-3391
▁rate	-3392
▁activity	-3393
тов	-3394
▁2.	-3395
▁requires	-3396
iza	-3397
▁Te	-3398
▁nutr	-3399
▁nuest	-3400
▁easier	-3401
▁convert	-3402
))\	-3403
▁caso	-3404
itable	-3405
▁indic	-3406
▁>	-3407
▁fit	-3408
▁crit	-3409
▁political	-3410
▁grav	-3411
▁American	-3412
▁Reg	-3413
▁memory	-3414
бе	-3415
itud	-3416
▁believe	-3417
▁solution	-3418
ips	-3419
▁Thank	-3420
▁culture	-3421
▁empres	-3422
▁started	-3423
▁Could	-3424
▁author	-3425
▁relativ	-3426
▁evidence	-3427
oca	-3428
ione	-3429
▁essential	-3430
▁cool	-3431
▁face	-3432
▁antes	-3433
▁lower	-3434
▁regard	-3435
Ch	-3436
▁Ins	-3437
▁Europe	-3438
▁strength	-3439
,,	-3440
▁cru	-3441
▁goal	-3442
▁bring	-3443
▁Р	-3444
чно	-3445
nHow	-3446
ening	-3447
▁innov	-3448
▁visit	-3449
▁oder	-3450
PU	-3451
jar	-3452
▁With	-3453
▁mismo	-3454
posit	-3455
▁fish	-3456
▁adapt	-3457
▁economic	-3458
▁communication	-3459
▁Una	-3460
▁fire	-3461
▁night	-3462
▁track	-3463
▁detect	-3464
▁cantidad	-3465
▁flo	-3466
▁mel	-3467
ready	-3468
ump	-3469
ouble	-3470
▁conv	-3471
▁tare	-3472
▁report	-3473
▁Windows	-3474
ych	-3475
▁ро	-3476
file	-3477
лько	-3478
аль	-3479
▁mir	-3480
▁four	-3481
22	-3482
book	-3483
rollo	-3484
▁dies	-3485
▁loss	-3486
▁ayudarte	-3487
();\	-3488
cient	-3489
▁week	-3490
▁nombre	-3491
▁independ	-3492
cio	-3493
pañ	-3494
▁muchas	-3495
▁hi	-3496
▁ball	-3497
quences	-3498
▁funcion	-3499
▁predict	-3500
izes	-3501
▁jug	-3502
quest	-3503
oft	-3504
outh	-3505
▁images	-3506
▁random	-3507
▁estruct	-3508
GPT	-3509
asons	-3510
▁verd	-3511
▁aus	-3512
▁date	-3513
▁across	-3514
▁player	-3515
uit	-3516
▁Ke	-3517
▁wel	-3518
▁estar	-3519
▁named	-3520
iff	-3521
sole	-3522
▁uma	-3523
▁vac	-3524
▁están	-3525
шь	-3526
▁Ne	-3527
▁display	-3528
▁bad	-3529
untos	-3530
html	-3531
▁planet	-3532
önn	-3533
ably	-3534
ison	-3535
uts	-3536
▁effects	-3537
▁describe	-3538
15	-3539
▁dé	-3540
lear	-3541
▁Car	-3542
ursos	-3543
▁previous	-3544
▁generally	-3545
terns	-3546
▁proy	-3547
▁salt	-3548
▁--	-3549
▁average	-3550
▁bed	-3551
▁dark	-3552
▁issue	-3553
ัน	-3554
▁belief	-3555
▁effort	-3556
▁solar	-3557
▁towards	-3558
eras	-3559
▁mes	-3560
▁sounds	-3561
▁ethical	-3562
▁difference	-3563
▁successful	-3564
▁25	-3565
▁пред	-3566
▁highly	-3567
▁je	-3568
▁obs	-3569
ops	-3570
▁vent	-3571
▁cover	-3572
▁suggestions	-3573
▁mys	-3574
▁trabajo	-3575
▁virtual	-3576
▁param	-3577
itation	-3578
▁fundament	-3579
imientos	-3580
mod	-3581
при	-3582
ls	-3583
isf	-3584
кой	-3585
▁ones	-3586
▁page	-3587
▁apply	-3588
▁frequ	-3589
▁ни	-3590
cious	-3591
▁along	-3592
▁watch	-3593
fo	-3594
ства	-3595
▁habit	-3596
▁house	-3597
anation	-3598
▁aument	-3599
▁providing	-3600
▁dir	-3601
▁ком	-3602
▁animals	-3603
▁mét	-3604
▁room	-3605
▁already	-3606
▁perfect	-3607
▁customer	-3608
▁topic	-3609
irm	-3610
acias	-3611
▁HTML	-3612
▁fast	-3613
▁fel	-3614
▁чтобы	-3615
▁interes	-3616
ators	-3617
вер	-3618
การ	-3619
▁tax	-3620
▁extra	-3621
▁flu	-3622
▁brain	-3623
ilosoph	-3624
▁siguiente	-3625
echo	-3626
▁ciudad	-3627
ée	-3628
cir	-3629
urns	-3630
▁Este	-3631
----------------	-3632
30	-3633
cos	-3634
iet	-3635
▁Set	-3636
▁Ver	-3637
▁sind	-3638
▁instructions	-3639
▁На	-3640
▁imm	-3641
▁помо	-3642
▁Final	-3643
▁proyect	-3644
▁estim	-3645
▁actually	-3646
17	-3647
▁llev	-3648
▁tips	-3649
▁month	-3650
▁concer	-3651
nFor	-3652
нии	-3653
▁рас	-3654
▁pregunta	-3655
▁realizar	-3656
▁ofre	-3657
▁seen	-3658
▁sido	-3659
▁Of	-3660
esis	-3661
▁patterns	-3662
▁healthcare	-3663
ss	-3664
▁veh	-3665
▁parts	-3666
▁handle	-3667
▁production	-3668
ynam	-3669
рова	-3670
▁otra	-3671
▁ст	-3672
erse	-3673
▁proceso	-3674
▁resumen	-3675
▁desarrollo	-3676
omes	-3677
▁hol	-3678
▁Cont	-3679
▁once	-3680
▁estas	-3681
ologies	-3682
▁compan	-3683
▁жи	-3684
▁capital	-3685
▁strategies	-3686
itas	-3687
▁Str	-3688
▁got	-3689
▁könn	-3690
acional	-3691
nSo	-3692
écn	-3693
weet	-3694
▁Mod	-3695
▁Sol	-3696
acion	-3697
▁young	-3698
.,	-3699
▁coc	-3700
ág	-3701
▁eat	-3702
▁smo	-3703
▁cort	-3704
▁motiv	-3705
▁matter	-3706
▁measure	-3707
▁accurate	-3708
▁valor	-3709
▁explore	-3710
▁written	-3711
80	-3712
▁И	-3713
100	-3714
▁és	-3715
▁Pre	-3716
▁multi	-3717
RE	-3718
▁Jap	-3719
▁leading	-3720
roid	-3721
▁useful	-3722
▁desp	-3723
▁teng	-3724
▁modelo	-3725
imin	-3726
▁grad	-3727
▁comes	-3728
idd	-3729
▁Er	-3730
▁wer	-3731
▁dans	-3732
▁Lo	-3733
▁ré	-3734
ened	-3735
unque	-3736
▁prepar	-3737
▁=>	-3738
▁dry	-3739
▁precis	-3740
▁players	-3741
onom	-3742
▁Def	-3743
▁hace	-3744
▁segur	-3745
▁crucial	-3746
▁conflict	-3747
ams	-3748
hen	-3749
▁distance	-3750
▁property	-3751
ด้	-3752
nAnd	-3753
▁principal	-3754
vo	-3755
▁gir	-3756
14	-3757
like	-3758
input	-3759
order	-3760
▁count	-3761
▁agre	-3762
▁nivel	-3763
▁developed	-3764
ная	-3765
\",\	-3766
uegos	-3767
▁playing	-3768
бу	-3769
ley	-3770
▁directly	-3771
▁conversation	-3772
agn	-3773
pes	-3774
▁bás	-3775
ungen	-3776
▁remove	-3777
▁interesting	-3778
▁upd	-3779
▁útil	-3780
verall	-3781
▁Christ	-3782
▁either	-3783
▁preferences	-3784
ype	-3785
▁mol	-3786
▁asking	-3787
▁problemas	-3788
▁discover	-3789
60	-3790
erve	-3791
▁Min	-3792
▁cases	-3793
▁peque	-3794
▁relationships	-3795
org	-3796
ndef	-3797
aving	-3798
▁resist	-3799
▁chemical	-3800
▁required	-3801
ebr	-3802
▁ayuda	-3803
▁solve	-3804
avig	-3805
▁Don	-3806
▁Par	-3807
▁Rec	-3808
ivity	-3809
▁blue	-3810
▁espac	-3811
▁sustain	-3812
▁inteligencia	-3813
je	-3814
ails	-3815
▁land	-3816
▁green	-3817
▁permite	-3818
▁Us	-3819
▁ca	-3820
▁oc	-3821
ella	-3822
iful	-3823
lying	-3824
▁hold	-3825
▁longer	-3826
nf	-3827
adr	-3828
aria	-3829
ians	-3830
▁After	-3831
▁price	-3832
▁advant	-3833
99	-3834
▁че	-3835
▁Red	-3836
orial	-3837
ything	-3838
▁device	-3839
▁orden	-3840
▁audience	-3841
anc	-3842
▁War	-3843
icio	-3844
▁collect	-3845
▁aplicaciones	-3846
ocr	-3847
ror	-3848
▁living	-3849
ствен	-3850
▁early	-3851
▁involve	-3852
▁scientific	-3853
▁ce	-3854
▁сло	-3855
▁técn	-3856
▁energía	-3857
▁surface	-3858
▁Su	-3859
agon	-3860
iency	-3861
ática	-3862
▁seems	-3863
▁trust	-3864
▁manage	-3865
需要	-3866
nEst	-3867
▁speak	-3868
▁complete	-3869
▁1,	-3870
▁3.	-3871
atura	-3872
▁rock	-3873
▁establish	-3874
▁background	-3875
ige	-3876
ugg	-3877
▁era	-3878
▁far	-3879
▁mais	-3880
▁Start	-3881
▁illeg	-3882
▁últim	-3883
▁encour	-3884
▁feeling	-3885
▁palabras	-3886
фи	-3887
list	-3888
▁har	-3889
▁воз	-3890
utton	-3891
▁purpose	-3892
▁electric	-3893
':	-3894
▁dese	-3895
▁adecu	-3896
▁among	-3897
▁worth	-3898
▁accept	-3899
▁contains	-3900
▁involved	-3901
▁бе	-3902
▁wie	-3903
inary	-3904
▁compar	-3905
▁organiz	-3906
osa	-3907
▁ol	-3908
▁mús	-3909
▁tab	-3910
ísticas	-3911
่อ	-3912
гда	-3913
▁Med	-3914
▁band	-3915
сы	-3916
▁host	-3917
quence	-3918
ную	-3919
▁Fl	-3920
from	-3921
nswer	-3922
▁Germ	-3923
▁neur	-3924
▁poco	-3925
▁menos	-3926
ба	-3927
áct	-3928
▁May	-3929
icios	-3930
▁dent	-3931
▁saber	-3932
▁train	-3933
▁stress	-3934
▁interpret	-3935
len	-3936
▁которые	-3937
▁importantes	-3938
ostr	-3939
▁length	-3940
▁species	-3941
▁concerns	-3942
ulo	-3943
▁bir	-3944
▁mention	-3945
RL	-3946
ющи	-3947
▁fá	-3948
iert	-3949
onic	-3950
▁emp	-3951
empre	-3952
▁taste	-3953
▁También	-3954
▁па	-3955
isis	-3956
▁hal	-3957
▁send	-3958
▁database	-3959
▁feelings	-3960
▁functions	-3961
▁properties	-3962
▁2,	-3963
▁universe	-3964
aken	-3965
▁expert	-3966
▁capacidad	-3967
▁ingredients	-3968
зова	-3969
ended	-3970
▁datas	-3971
uth	-3972
▁va	-3973
iger	-3974
▁inside	-3975
▁Э	-3976
▁ún	-3977
▁heav	-3978
nprint	-3979
▁mucho	-3980
▁cheese	-3981
▁advanced	-3982
▁đ	-3983
▁Art	-3984
▁вре	-3985
▁Data	-3986
▁videos	-3987
down	-3988
ffic	-3989
igen	-3990
ходи	-3991
icros	-3992
abilities	-3993
aly	-3994
зна	-3995
ffee	-3996
abilidad	-3997
▁configur	-3998
▁variables	-3999
gent	-4000
inks	-4001
▁pow	-4002
▁боль	-4003
▁novel	-4004
'\	-4005
▁Gener	-4006
nPlease	-4007
▁siempre	-4008
▁civil	-4009
ек	-4010
bed	-4011
bon	-4012
über	-4013
▁als	-4014
▁weather	-4015
▁significa	-4016
mit	-4017
▁Comm	-4018
▁balance	-4019
าก	-4020
▁tree	-4021
▁быть	-4022
▁sauce	-4023
▁devices	-4024
▁condition	-4025
II	-4026
тся	-4027
oria	-4028
oups	-4029
▁bow	-4030
▁uns	-4031
ptions	-4032
▁movie	-4033
▁compos	-4034
ral	-4035
▁же	-4036
▁Inst	-4037
▁sugar	-4038
ím	-4039
-19	-4040
▁Then	-4041
▁Puedes	-4042
▁appear	-4043
▁negative	-4044
ctor	-4045
▁hat	-4046
▁Esta	-4047
▁statement	-4048
▁consequences	-4049
nAd	-4050
▁lif	-4051
ность	-4052
▁danger	-4053
▁específic	-4054
aim	-4055
▁cuer	-4056
▁names	-4057
▁shape	-4058
▁widely	-4059
aft	-4060
ncon	-4061
ished	-4062
▁skin	-4063
▁drink	-4064
icken	-4065
▁column	-4066
div	-4067
тер	-4068
▁vot	-4069
▁aliment	-4070
▁sistemas	-4071
▁students	-4072
aced	-4073
atoes	-4074
ativo	-4075
ierra	-4076
▁hair	-4077
icrosoft	-4078
▁philosoph	-4079
13	-4080
np	-4081
▁tel	-4082
▁можно	-4083
▁restaur	-4084
кие	-4085
ners	-4086
▁(20	-4087
▁pet	-4088
▁emerg	-4089
▁satisf	-4090
▁illegal	-4091
ués	-4092
▁17	-4093
Cómo	-4094
fica	-4095
▁flex	-4096
▁prem	-4097
▁wood	-4098
▁simpl	-4099
▁demand	-4100
-5	-4101
nAn	-4102
opt	-4103
ho	-4104
nAl	-4105
úbl	-4106
▁All	-4107
selves	-4108
▁Person	-4109
▁trained	-4110
▁education	-4111
▁algorithms	-4112
\\_	-4113
▁(2	-4114
▁directory	-4115
olut	-4116
ouch	-4117
ining	-4118
utput	-4119
▁deber	-4120
▁addition	-4121
▁Е	-4122
udo	-4123
▁bene	-4124
▁symbol	-4125
nHowever	-4126
зда	-4127
нных	-4128
▁eyes	-4129
▁encuent	-4130
▁particularly	-4131
使用	-4132
ields	-4133
friend	-4134
▁cloth	-4135
uestion	-4136
▁itself	-4137
▁larger	-4138
сте	-4139
тив	-4140
ring	-4141
▁center	-4142
▁though	-4143
▁reasons	-4144
▁_	-4145
igual	-4146
▁blood	-4147
▁promot	-4148
dom	-4149
▁animal	-4150
zy	-4151
пу	-4152
пре	-4153
▁ra	-4154
▁Name	-4155
▁Trans	-4156
▁phone	-4157
▁todas	-4158
▁solutions	-4159
▁processing	-4160
▁tecnología	-4161
ieved	-4162
▁Consider	-4163
▁practices	-4164
ère	-4165
eder	-4166
onstr	-4167
ET	-4168
sc	-4169
стви	-4170
▁Val	-4171
arily	-4172
▁miss	-4173
▁scen	-4174
▁states	-4175
▁privacy	-4176
▁smaller	-4177
▁importance	-4178
ень	-4179
▁entr	-4180
▁fácil	-4181
▁alguna	-4182
▁incorpor	-4183
atory	-4184
izaje	-4185
ensión	-4186
AS	-4187
men	-4188
erra	-4189
▁rules	-4190
▁quantum	-4191
▁agr	-4192
▁seguir	-4193
1)	-4194
rom	-4195
лее	-4196
▁scr	-4197
▁его	-4198
▁initial	-4199
▁Я	-4200
jas	-4201
▁az	-4202
astic	-4203
ulate	-4204
istics	-4205
uction	-4206
▁tomar	-4207
▁marketing	-4208
▁throughout	-4209
ву	-4210
▁screen	-4211
▁teoría	-4212
▁14	-4213
echa	-4214
▁Nor	-4215
▁associated	-4216
ony	-4217
▁Sim	-4218
force	-4219
▁roll	-4220
▁обра	-4221
▁manip	-4222
▁colors	-4223
tom	-4224
▁repl	-4225
▁objetos	-4226
▁су	-4227
uman	-4228
▁cod	-4229
▁draw	-4230
▁sets	-4231
▁mism	-4232
▁werden	-4233
▁utilizando	-4234
urt	-4235
пра	-4236
char	-4237
▁categ	-4238
▁texto	-4239
▁damage	-4240
▁members	-4241
▁force	-4242
▁Thanks	-4243
▁reflect	-4244
▁obtener	-4245
▁Pol	-4246
▁mut	-4247
▁Also	-4248
▁flavor	-4249
▁monitor	-4250
rel	-4251
vas	-4252
▁drive	-4253
▁instance	-4254
Ex	-4255
OR	-4256
ні	-4257
▁foot	-4258
▁seek	-4259
odrías	-4260
▁calidad	-4261
ov	-4262
▁Pe	-4263
body	-4264
▁led	-4265
▁auch	-4266
nThese	-4267
▁stream	-4268
▁feedback	-4269
▁companies	-4270
6,	-4271
CT	-4272
▁Rep	-4273
▁talk	-4274
▁cells	-4275
▁processes	-4276
▁habilidades	-4277
alt	-4278
▁fer	-4279
▁later	-4280
ับ	-4281
ema	-4282
▁promote	-4283
aged	-4284
▁guide	-4285
▁na	-4286
▁link	-4287
▁seem	-4288
▁behind	-4289
▁careful	-4290
▁architect	-4291
EN	-4292
icles	-4293
▁tables	-4294
iddle	-4295
ising	-4296
▁Lear	-4297
▁pens	-4298
▁baj	-4299
▁hands	-4300
▁react	-4301
▁credit	-4302
▁letter	-4303
▁combination	-4304
mas	-4305
uff	-4306
gram	-4307
нима	-4308
▁apro	-4309
▁efic	-4310
▁eleg	-4311
▁detailed	-4312
poon	-4313
▁Hola	-4314
▁root	-4315
▁Algun	-4316
▁maxim	-4317
▁potentially	-4318
unk	-4319
tery	-4320
cohol	-4321
▁qual	-4322
▁repe	-4323
cont	-4324
▁won	-4325
clude	-4326
▁close	-4327
▁intent	-4328
▁limited	-4329
▁Ч	-4330
geb	-4331
▁alt	-4332
▁mixt	-4333
Pro	-4334
att	-4335
erte	-4336
ству	-4337
▁dol	-4338
▁fix	-4339
▁decl	-4340
▁books	-4341
ือ	-4342
сту	-4343
▁Die	-4344
▁españ	-4345
')\	-4346
agen	-4347
iers	-4348
ques	-4349
▁pare	-4350
▁Intern	-4351
ibilidad	-4352
▁Act	-4353
▁clar	-4354
▁пра	-4355
tempt	-4356
hing	-4357
▁liter	-4358
▁lives	-4359
▁returns	-4360
▁seguridad	-4361
▁Int	-4362
▁front	-4363
▁dispon	-4364
▁easily	-4365
▁standard	-4366
мя	-4367
▁Res	-4368
▁navig	-4369
LL	-4370
áp	-4371
ões	-4372
▁decid	-4373
▁estable	-4374
▁transport	-4375
▁vegetables	-4376
▁comfortable	-4377
Tr	-4378
ár	-4379
reg	-4380
сси	-4381
ende	-4382
▁aqu	-4383
▁earth	-4384
▁quite	-4385
▁pepper	-4386
▁journey	-4387
▁allowing	-4388
▁cry	-4389
ности	-4390
▁celebr	-4391
▁entire	-4392
▁attract	-4393
▁outside	-4394
▁responses	-4395
`,	-4396
▁язы	-4397
cribe	-4398
posed	-4399
▁spread	-4400
▁setting	-4401
▁sou	-4402
▁Claro	-4403
▁Españ	-4404
▁dynam	-4405
▁psych	-4406
ilities	-4407
▁secure	-4408
้า	-4409
ago	-4410
▁</	-4411
▁ты	-4412
adem	-4413
лове	-4414
▁bias	-4415
▁могут	-4416
quality	-4417
▁harmful	-4418
▁hardware	-4419
istas	-4420
▁entren	-4421
▁aprendizaje	-4422
elle	-4423
tica	-4424
▁lado	-4425
new	-4426
ция	-4427
▁exercise	-4428
25	-4429
▁bud	-4430
▁constant	-4431
▁recursos	-4432
▁currently	-4433
▁eggs	-4434
▁según	-4435
▁recommended	-4436
ork	-4437
▁God	-4438
▁rap	-4439
icial	-4440
▁rout	-4441
▁labor	-4442
unction	-4443
bit	-4444
ном	-4445
iced	-4446
▁Mon	-4447
▁projects	-4448
ются	-4449
▁enh	-4450
tings	-4451
▁Well	-4452
▁escr	-4453
▁death	-4454
▁commit	-4455
▁specif	-4456
2)	-4457
▁sil	-4458
▁rich	-4459
▁square	-4460
bot	-4461
eters	-4462
▁built	-4463
▁Develop	-4464
▁components	-4465
nc	-4466
zo	-4467
ader	-4468
▁dim	-4469
▁below	-4470
▁differences	-4471
ED	-4472
ха	-4473
มี	-4474
tra	-4475
▁np	-4476
▁sie	-4477
▁loop	-4478
▁concepts	-4479
▁consistent	-4480
▁everything	-4481
sv	-4482
umb	-4483
▁tér	-4484
▁John	-4485
▁fresh	-4486
▁incluyendo	-4487
ilo	-4488
ков	-4489
▁Cu	-4490
▁whole	-4491
▁season	-4492
▁simply	-4493
▁requests	-4494
▁Dec	-4495
▁milk	-4496
แล	-4497
nCon	-4498
▁attempt	-4499
▁desired	-4500
▁elementos	-4501
▁platforms	-4502
▁challenging	-4503
cho	-4504
lab	-4505
▁од	-4506
▁surv	-4507
▁dream	-4508
▁climate	-4509
▁เ	-4510
meros	-4511
▁largo	-4512
▁Ge	-4513
aily	-4514
стро	-4515
value	-4516
▁einen	-4517
▁matem	-4518
▁coffee	-4519
▁serious	-4520
OM	-4521
xy	-4522
war	-4523
phas	-4524
áles	-4525
▁Good	-4526
illing	-4527
▁neural	-4528
nOverall	-4529
▁feature	-4530
▁escribir	-4531
**\	-4532
▁11	-4533
ació	-4534
▁ang	-4535
▁prep	-4536
▁became	-4537
▁Hay	-4538
ático	-4539
▁2023	-4540
▁circ	-4541
▁beliefs	-4542
ltimately	-4543
▁%	-4544
▁aim	-4545
▁bab	-4546
▁medic	-4547
▁efficiency	-4548
▁functional	-4549
▁mé	-4550
acing	-4551
▁Which	-4552
▁plants	-4553
▁opportunities	-4554
▁características	-4555
▁Sc	-4556
ault	-4557
▁apolog	-4558
▁decisions	-4559
▁ho	-4560
0\	-4561
ike	-4562
▁если	-4563
my	-4564
utos	-4565
▁caf	-4566
▁Japan	-4567
▁compre	-4568
8,	-4569
ey	-4570
ache	-4571
iner	-4572
wers	-4573
▁cum	-4574
▁subst	-4575
▁themselves	-4576
hold	-4577
know	-4578
▁Who	-4579
▁laws	-4580
▁pick	-4581
▁save	-4582
atives	-4583
pet	-4584
▁13	-4585
ajas	-4586
encies	-4587
▁groups	-4588
tp	-4589
▁ti	-4590
▁их	-4591
▁Ste	-4592
▁enter	-4593
icional	-4594
▁policy	-4595
▁connection	-4596
atos	-4597
▁rot	-4598
▁Just	-4599
▁Great	-4600
▁third	-4601
▁ку	-4602
▁це	-4603
iable	-4604
ublic	-4605
▁Mark	-4606
▁chann	-4607
▁други	-4608
▁música	-4609
▁mixture	-4610
ными	-4611
itary	-4612
preci	-4613
▁Brit	-4614
▁cold	-4615
▁sympt	-4616
urround	-4617
▁ChatGPT	-4618
▁programs	-4619
▁gru	-4620
▁refr	-4621
▁medio	-4622
▁according	-4623
ima	-4624
клю	-4625
▁threat	-4626
▁momento	-4627
▁conscious	-4628
nK	-4629
▁ban	-4630
▁hid	-4631
ision	-4632
▁profes	-4633
size	-4634
▁tut	-4635
▁matr	-4636
▁spir	-4637
iation	-4638
icious	-4639
nThere	-4640
▁pasos	-4641
icación	-4642
▁article	-4643
▁thinking	-4644
ña	-4645
▁З	-4646
ray	-4647
▁hear	-4648
▁purch	-4649
▁butter	-4650
▁económ	-4651
дер	-4652
▁Try	-4653
▁gain	-4654
▁pret	-4655
▁customers	-4656
▁Tw	-4657
▁raz	-4658
arian	-4659
icing	-4660
▁afect	-4661
▁System	-4662
▁corresp	-4663
ща	-4664
eds	-4665
ได้	-4666
▁box	-4667
ativa	-4668
▁pattern	-4669
▁responsible	-4670
igu	-4671
▁ill	-4672
▁bill	-4673
▁casa	-4674
▁five	-4675
▁numer	-4676
▁sched	-4677
▁beautiful	-4678
)"}	-4679
▁ma	-4680
▁tim	-4681
gress	-4682
itude	-4683
urance	-4684
▁práct	-4685
▁somet	-4686
▁define	-4687
▁і	-4688
ológ	-4689
vide	-4690
▁igual	-4691
▁pueda	-4692
▁punto	-4693
▁shows	-4694
▁extract	-4695
▁distribution	-4696
ela	-4697
ells	-4698
▁Ser	-4699
▁bes	-4700
▁име	-4701
▁cross	-4702
▁viv	-4703
rench	-4704
▁conj	-4705
▁über	-4706
▁smooth	-4707
▁compared	-4708
▁mantener	-4709
eda	-4710
illo	-4711
▁wird	-4712
▁OpenAI	-4713
▁varios	-4714
▁lic	-4715
▁aseg	-4716
▁carr	-4717
▁corr	-4718
▁adult	-4719
▁password	-4720
▁population	-4721
ên	-4722
aten	-4723
▁sont	-4724
▁fully	-4725
▁topics	-4726
tructure	-4727
aron	-4728
ocks	-4729
▁199	-4730
ensor	-4731
▁intr	-4732
▁comen	-4733
▁smart	-4734
uk	-4735
room	-4736
▁subs	-4737
eration	-4738
adamente	-4739
▁assistance	-4740
▁conduct	-4741
▁engaging	-4742
шо	-4743
▁Inter	-4744
▁advent	-4745
▁conten	-4746
▁números	-4747
คุ	-4748
็น	-4749
ugs	-4750
rase	-4751
▁calculate	-4752
Cl	-4753
ev	-4754
▁Part	-4755
▁cand	-4756
▁tres	-4757
▁client	-4758
▁cooking	-4759
ils	-4760
pass	-4761
▁idi	-4762
▁van	-4763
iante	-4764
▁taken	-4765
▁objeto	-4766
▁alcohol	-4767
▁emotions	-4768
▁velocidad	-4769
▁contribute	-4770
vest	-4771
▁hon	-4772
▁load	-4773
▁places	-4774
▁compreh	-4775
▁suitable	-4776
▁Microsoft	-4777
▁inj	-4778
phere	-4779
▁wrong	-4780
▁grandes	-4781
▁familiar	-4782
▁sequence	-4783
▁influence	-4784
▁aplicación	-4785
▁herramientas	-4786
bor	-4787
▁Many	-4788
▁layer	-4789
olutely	-4790
▁resultado	-4791
▁Co	-4792
uted	-4793
▁ale	-4794
▁gold	-4795
▁може	-4796
▁divid	-4797
▁estado	-4798
40	-4799
▁buena	-4800
▁ancient	-4801
IT	-4802
cias	-4803
enge	-4804
▁есть	-4805
▁atmos	-4806
▁Univers	-4807
▁entender	-4808
▁pressure	-4809
ós	-4810
inas	-4811
your	-4812
▁mac	-4813
▁win	-4814
▁bran	-4815
▁push	-4816
terior	-4817
▁ready	-4818
▁вопро	-4819
▁челове	-4820
▁automat	-4821
▁located	-4822
▁rom	-4823
▁fields	-4824
ให	-4825
can	-4826
nPor	-4827
▁Sec	-4828
▁més	-4829
▁áre	-4830
▁сто	-4831
▁рабо	-4832
▁piece	-4833
▁refers	-4834
▁chicken	-4835
Re	-4836
ไม	-4837
▁sí	-4838
▁чи	-4839
▁Abs	-4840
▁также	-4841
▁observ	-4842
可能	-4843
nOn	-4844
▁Ac	-4845
▁ju	-4846
▁els	-4847
▁fat	-4848
▁YouT	-4849
▁relax	-4850
▁España	-4851
▁appreci	-4852
▁patient	-4853
от	-4854
คว	-4855
▁?	-4856
ité	-4857
test	-4858
éctr	-4859
▁shap	-4860
▁equal	-4861
▁risks	-4862
▁historical	-4863
\">	-4864
▁Gu	-4865
▁map	-4866
ocker	-4867
чения	-4868
▁auth	-4869
▁fail	-4870
▁pros	-4871
▁rele	-4872
▁trat	-4873
▁осно	-4874
volution	-4875
▁formula	-4876
▁commonly	-4877
▁creative	-4878
Th	-4879
|\	-4880
▁Que	-4881
▁yet	-4882
▁fair	-4883
▁patr	-4884
▁cient	-4885
▁micro	-4886
▁attack	-4887
▁height	-4888
▁tareas	-4889
▁strategy	-4890
▁component	-4891
▁brand	-4892
▁factor	-4893
▁operating	-4894
▁goes	-4895
▁porque	-4896
фор	-4897
▁Av	-4898
▁Sw	-4899
▁fo	-4900
ager	-4901
ierto	-4902
▁cast	-4903
▁evitar	-4904
2\	-4905
ounds	-4906
▁emoc	-4907
▁meat	-4908
▁inclus	-4909
==	-4910
where	-4911
▁Check	-4912
▁foods	-4913
▁properly	-4914
▁apologize	-4915
▁Ro	-4916
...\	-4917
▁Web	-4918
▁tour	-4919
▁созда	-4920
▁diferencia	-4921
▁operations	-4922
▁ц	-4923
hib	-4924
▁PC	-4925
▁aj	-4926
rupt	-4927
▁bowl	-4928
button	-4929
▁medium	-4930
▁century	-4931
▁reality	-4932
izza	-4933
▁Eng	-4934
▁dud	-4935
▁вам	-4936
▁Okay	-4937
▁fine	-4938
▁trip	-4939
▁daily	-4940
▁problema	-4941
▁increasing	-4942
ask	-4943
eed	-4944
▁einer	-4945
▁forms	-4946
▁hacia	-4947
▁emphas	-4948
▁usuario	-4949
▁disposit	-4950
▁surround	-4951
7,	-4952
▁Net	-4953
▁tri	-4954
elines	-4955
ucción	-4956
▁nuevo	-4957
▁tengo	-4958
▁breath	-4959
▁podrías	-4960
▁Therefore	-4961
▁dangerous	-4962
▁principales	-4963
лы	-4964
▁Cr	-4965
▁Apple	-4966
▁rights	-4967
▁allowed	-4968
▁correspond	-4969
var	-4970
▁ди	-4971
ческо	-4972
▁query	-4973
▁ejemplos	-4974
▁fundamental	-4975
IM	-4976
▁Har	-4977
nfrom	-4978
▁gest	-4979
ography	-4980
▁caused	-4981
▁países	-4982
▁использу	-4983
elo	-4984
zcl	-4985
▁1/2	-4986
▁vul	-4987
\");\	-4988
▁site	-4989
▁First	-4990
▁fight	-4991
▁segun	-4992
▁women	-4993
▁package	-4994
▁symptoms	-4995
▁interests	-4996
้น	-4997
iano	-4998
▁SQL	-4999
irect	-5000
▁infr	-5001
▁expand	-5002
▁usuarios	-5003
▁San	-5004
▁física	-5005
▁sexual	-5006
▁explanation	-5007
70	-5008
▁famous	-5009
▁forward	-5010
▁official	-5011
ком	-5012
ivas	-5013
user	-5014
▁ráp	-5015
▁descub	-5016
▁eléctr	-5017
▁können	-5018
▁respectful	-5019
PS	-5020
ém	-5021
---	-5022
cen	-5023
ests	-5024
idge	-5025
▁cin	-5026
▁cit	-5027
▁Russ	-5028
▁index	-5029
▁favorite	-5030
ueb	-5031
imal	-5032
▁lack	-5033
▁retr	-5034
▁preguntas	-5035
▁effectively	-5036
9,	-5037
hora	-5038
▁ellos	-5039
▁budget	-5040
▁disease	-5041
▁reading	-5042
▁increased	-5043
{\	-5044
▁Now	-5045
▁faster	-5046
▁private	-5047
▁technologies	-5048
orr	-5049
▁French	-5050
▁organization	-5051
▁JS	-5052
▁sería	-5053
▁active	-5054
▁factores	-5055
ью	-5056
▁3,	-5057
▁pip	-5058
▁pron	-5059
▁прои	-5060
nEspero	-5061
▁humano	-5062
El	-5063
▁40	-5064
ding	-5065
nOne	-5066
▁Aut	-5067
▁año	-5068
▁rat	-5069
▁leave	-5070
▁dataset	-5071
él	-5072
▁Py	-5073
avas	-5074
луча	-5075
▁upon	-5076
▁replace	-5077
▁empe	-5078
▁cream	-5079
▁interface	-5080
▁sentences	-5081
▁sometimes	-5082
AD	-5083
▁è	-5084
▁–	-5085
fol	-5086
▁пи	-5087
ette	-5088
▁Это	-5089
▁явля	-5090
ят	-5091
año	-5092
▁didn	-5093
▁difí	-5094
▁sport	-5095
ocolate	-5096
plement	-5097
▁filter	-5098
))	-5099
str	-5100
ares	-5101
▁tan	-5102
▁primer	-5103
fig	-5104
abet	-5105
alla	-5106
antas	-5107
▁Take	-5108
▁engage	-5109
▁approxim	-5110
▁description	-5111
Con	-5112
itz	-5113
flow	-5114
host	-5115
odos	-5116
pers	-5117
▁Afr	-5118
▁yes	-5119
```"}	-5120
▁quer	-5121
▁lines	-5122
▁Finally	-5123
▁humanos	-5124
▁alternative	-5125
▁communicate	-5126
ored	-5127
▁appl	-5128
inación	-5129
▁window	-5130
▁difícil	-5131
nWe	-5132
ned	-5133
▁Keep	-5134
▁claim	-5135
▁YouTube	-5136
เป	-5137
语言	-5138
Com	-5139
▁CO	-5140
▁od	-5141
itted	-5142
▁chop	-5143
source	-5144
▁acces	-5145
▁costs	-5146
ificación	-5147
▁walk	-5148
▁party	-5149
▁empresa	-5150
▁framework	-5151
ід	-5152
atr	-5153
ánd	-5154
icks	-5155
▁kil	-5156
▁relacion	-5157
▁2:	-5158
▁Vis	-5159
▁públ	-5160
▁infin	-5161
▁woman	-5162
▁button	-5163
▁demonstr	-5164
▁cou	-5165
class	-5166
▁muest	-5167
ko	-5168
ца	-5169
adora	-5170
▁varias	-5171
▁Certain	-5172
▁reducing	-5173
ums	-5174
emon	-5175
▁URL	-5176
▁sty	-5177
▁Rust	-5178
▁cambi	-5179
▁futuro	-5180
▁movement	-5181
ying	-5182
▁vit	-5183
▁Comp	-5184
▁farm	-5185
▁recent	-5186
▁welcome	-5187
SC	-5188
▁фи	-5189
izer	-5190
▁Bar	-5191
▁vir	-5192
▁voice	-5193
64	-5194
вя	-5195
▁Г	-5196
hal	-5197
зво	-5198
▁мне	-5199
avascript	-5200
▁experiencia	-5201
ระ	-5202
сло	-5203
▁он	-5204
ocket	-5205
▁Como	-5206
ounter	-5207
▁mount	-5208
▁detall	-5209
▁colores	-5210
▁finding	-5211
plications	-5212
cas	-5213
ugh	-5214
▁má	-5215
wend	-5216
▁fem	-5217
ischen	-5218
▁vector	-5219
▁collabor	-5220
▁probably	-5221
▁developers	-5222
()`	-5223
нию	-5224
нием	-5225
aming	-5226
ágina	-5227
▁serve	-5228
▁adding	-5229
Wh	-5230
df	-5231
ui	-5232
▁Б	-5233
Name	-5234
грам	-5235
▁Get	-5236
▁ese	-5237
▁Hello	-5238
▁answers	-5239
▁testing	-5240
px	-5241
一些	-5242
логи	-5243
▁bur	-5244
▁mer	-5245
▁soy	-5246
▁click	-5247
plication	-5248
3)	-5249
▁Acc	-5250
▁eye	-5251
▁спо	-5252
▁tema	-5253
fit	-5254
isms	-5255
ightly	-5256
▁occur	-5257
▁expres	-5258
oon	-5259
▁202	-5260
▁merc	-5261
▁race	-5262
▁flour	-5263
▁greater	-5264
▁quieres	-5265
▁architecture	-5266
▁Ab	-5267
anas	-5268
iten	-5269
▁Gre	-5270
erate	-5271
ención	-5272
▁region	-5273
คุณ	-5274
▁Mus	-5275
ervice	-5276
▁esper	-5277
artment	-5278
▁modify	-5279
▁switch	-5280
▁libraries	-5281
▁perspective	-5282
ibt	-5283
nconst	-5284
▁cosas	-5285
▁conclusion	-5286
nen	-5287
gers	-5288
▁espacio	-5289
ees	-5290
lay	-5291
érica	-5292
▁mist	-5293
agement	-5294
▁extern	-5295
▁invent	-5296
▁million	-5297
▁thoughts	-5298
▁environmental	-5299
▁international	-5300
▁buen	-5301
▁dogs	-5302
▁girl	-5303
▁tipos	-5304
▁diseño	-5305
什么	-5306
▁au	-5307
List	-5308
▁Her	-5309
▁valu	-5310
▁gather	-5311
нк	-5312
▁CSS	-5313
▁lle	-5314
▁sweet	-5315
▁speech	-5316
nam	-5317
▁grat	-5318
string	-5319
▁debido	-5320
▁played	-5321
▁variedad	-5322
Ar	-5323
нь	-5324
igr	-5325
oes	-5326
ход	-5327
▁1:	-5328
▁nuc	-5329
▁feet	-5330
▁teas	-5331
▁objetivo	-5332
▁abilities	-5333
▁treatment	-5334
▁estructura	-5335
['	-5336
uly	-5337
acer	-5338
▁fab	-5339
chain	-5340
▁более	-5341
▁aspects	-5342
formation	-5343
hl	-5344
▁hom	-5345
▁ley	-5346
ufact	-5347
▁added	-5348
▁scene	-5349
▁dishes	-5350
▁página	-5351
▁relación	-5352
▁completely	-5353
azon	-5354
▁amor	-5355
▁touch	-5356
▁download	-5357
▁sociedad	-5358
▁mathematical	-5359
▁specifically	-5360
son	-5361
▁Sk	-5362
▁ну	-5363
inct	-5364
▁pad	-5365
▁Build	-5366
▁mentioned	-5367
Ap	-5368
ça	-5369
▁peut	-5370
▁expos	-5371
▁maint	-5372
▁TV	-5373
ague	-5374
▁immed	-5375
▁cuerpo	-5376
▁который	-5377
ких	-5378
ille	-5379
poth	-5380
▁Sal	-5381
ionar	-5382
▁lost	-5383
▁began	-5384
▁guitar	-5385
▁moving	-5386
▁military	-5387
▁planning	-5388
вой	-5389
пол	-5390
▁gén	-5391
▁West	-5392
▁enem	-5393
▁rain	-5394
▁React	-5395
▁assum	-5396
ministr	-5397
▁causes	-5398
▁movies	-5399
▁terminal	-5400
ром	-5401
cles	-5402
ingu	-5403
▁impl	-5404
▁ingl	-5405
▁wild	-5406
▁dentro	-5407
▁extrem	-5408
▁central	-5409
zz	-5410
ให้	-5411
erap	-5412
igos	-5413
▁enf	-5414
▁wall	-5415
though	-5416
ículas	-5417
▁estás	-5418
▁restr	-5419
entence	-5420
▁formal	-5421
▁español	-5422
dent	-5423
▁garlic	-5424
▁contract	-5425
▁cultures	-5426
▁principles	-5427
▁4.	-5428
▁<<	-5429
▁Bo	-5430
wise	-5431
▁avec	-5432
▁logr	-5433
▁oven	-5434
▁causing	-5435
▁priorit	-5436
▁storage	-5437
▁measures	-5438
▁opciones	-5439
▁emotional	-5440
-0	-5441
ags	-5442
▁24	-5443
▁news	-5444
пример	-5445
▁pieces	-5446
▁talking	-5447
▁regularly	-5448
▁complexity	-5449
▁necesidades	-5450
▁Il	-5451
▁bul	-5452
▁tail	-5453
ensions	-5454
▁gender	-5455
▁vulner	-5456
Por	-5457
ibl	-5458
спе	-5459
▁dead	-5460
▁huev	-5461
ensity	-5462
▁protein	-5463
ัง	-5464
▁Sm	-5465
ging	-5466
▁Ass	-5467
▁ann	-5468
▁wond	-5469
▁false	-5470
▁heard	-5471
▁moral	-5472
▁motor	-5473
icamente	-5474
▁accuracy	-5475
OT	-5476
zas	-5477
▁tra	-5478
oming	-5479
▁Each	-5480
▁kids	-5481
▁mezcl	-5482
ception	-5483
▁guidance	-5484
aza	-5485
▁row	-5486
usión	-5487
▁Stud	-5488
▁creates	-5489
▁transfer	-5490
ya	-5491
▁Give	-5492
▁half	-5493
▁concentr	-5494
▁incluyen	-5495
▁siguientes	-5496
อย	-5497
问题	-5498
тре	-5499
▁bound	-5500
▁bread	-5501
▁humor	-5502
▁diverse	-5503
▁primera	-5504
uls	-5505
ées	-5506
дет	-5507
лек	-5508
▁Oh	-5509
Cuál	-5510
aine	-5511
world	-5512
▁pode	-5513
▁star	-5514
▁Austr	-5515
▁facil	-5516
▁glass	-5517
▁noise	-5518
▁ejecut	-5519
▁opción	-5520
▁update	-5521
fficient	-5522
▁Android	-5523
▁chocolate	-5524
hi	-5525
▁У	-5526
ION	-5527
▁mob	-5528
isten	-5529
▁align	-5530
▁obser	-5531
ference	-5532
▁figure	-5533
▁utilizan	-5534
▁websites	-5535
▁situations	-5536
SD	-5537
hood	-5538
Hello	-5539
▁catch	-5540
iciones	-5541
].	-5542
asc	-5543
\">\	-5544
vere	-5545
▁método	-5546
▁capture	-5547
▁organizations	-5548
used	-5549
agraph	-5550
▁audio	-5551
▁profesional	-5552
[0	-5553
yl	-5554
如果	-5555
off	-5556
edia	-5557
nBut	-5558
каза	-5559
▁Ich	-5560
▁Pract	-5561
▁archivo	-5562
▁musical	-5563
▁valores	-5564
▁construct	-5565
▁contenido	-5566
url	-5567
▁1\	-5568
▁kn	-5569
▁gal	-5570
change	-5571
▁baking	-5572
▁valuable	-5573
dis	-5574
raf	-5575
луч	-5576
три	-5577
ไม่	-5578
nCom	-5579
▁Ele	-5580
inger	-5581
▁soon	-5582
▁vill	-5583
▁colon	-5584
▁ideal	-5585
▁compil	-5586
▁eating	-5587
▁execut	-5588
▁videoj	-5589
friendly	-5590
▁advance	-5591
nes	-5592
ypt	-5593
ienda	-5594
▁cart	-5595
▁mens	-5596
ership	-5597
▁cultura	-5598
odes	-5599
orte	-5600
vant	-5601
elt	-5602
ira	-5603
rate	-5604
uits	-5605
eness	-5606
▁road	-5607
▁coord	-5608
uciones	-5609
▁networks	-5610
nh	-5611
nSi	-5612
amin	-5613
▁Les	-5614
▁std	-5615
ellen	-5616
▁JSON	-5617
▁Play	-5618
▁title	-5619
duction	-5620
▁juegos	-5621
▁necesario	-5622
ged	-5623
▁80	-5624
being	-5625
▁зада	-5626
▁robot	-5627
▁score	-5628
▁career	-5629
▁largest	-5630
▁Learning	-5631
▁resolver	-5632
As	-5633
uta	-5634
цию	-5635
▁Je	-5636
▁alc	-5637
▁aunque	-5638
position	-5639
▁existing	-5640
yond	-5641
▁tor	-5642
▁rise	-5643
▁becomes	-5644
▁existen	-5645
▁follows	-5646
▁physics	-5647
▁exercises	-5648
uen	-5649
ети	-5650
цио	-5651
áfic	-5652
▁Not	-5653
▁fib	-5654
▁filled	-5655
ett	-5656
▁flat	-5657
▁cloud	-5658
▁lands	-5659
▁neigh	-5660
▁ответ	-5661
▁origin	-5662
▁changing	-5663
AL	-5664
eat	-5665
equ	-5666
ções	-5667
▁обу	-5668
▁rein	-5669
▁algún	-5670
▁resid	-5671
▁improving	-5672
▁comprehensive	-5673
▁implementation	-5674
Ad	-5675
mm	-5676
нные	-5677
▁His	-5678
▁esa	-5679
glich	-5680
▁baby	-5681
▁vibr	-5682
▁proced	-5683
▁classes	-5684
▁definit	-5685
▁parameters	-5686
ทํา	-5687
ieron	-5688
▁concern	-5689
▁messages	-5690
▁container	-5691
/\	-5692
icy	-5693
▁km	-5694
▁sac	-5695
asure	-5696
itter	-5697
▁exec	-5698
ercial	-5699
▁formas	-5700
▁authent	-5701
▁exactly	-5702
▁manufact	-5703
▁expression	-5704
/4	-5705
ال	-5706
▁ê	-5707
ota	-5708
▁ét	-5709
NAME	-5710
iero	-5711
▁tam	-5712
illas	-5713
ataform	-5714
▁buscar	-5715
▁contra	-5716
▁inglés	-5717
▁algorit	-5718
▁chopped	-5719
1\	-5720
oo	-5721
wr	-5722
sol	-5723
etch	-5724
▁Und	-5725
alian	-5726
echos	-5727
▁dich	-5728
áticas	-5729
▁aproxim	-5730
▁sustainable	-5731
ät	-5732
ีย	-5733
ใน	-5734
▁Lat	-5735
▁ceb	-5736
▁aire	-5737
▁late	-5738
▁rais	-5739
▁того	-5740
▁traff	-5741
________	-5742
▁communities	-5743
▁regulations	-5744
xic	-5745
нов	-5746
▁Ка	-5747
cean	-5748
eles	-5749
oose	-5750
▁GPT	-5751
▁Git	-5752
▁Как	-5753
зовать	-5754
▁Would	-5755
▁debes	-5756
45	-5757
▁Мо	-5758
inos	-5759
▁Bat	-5760
ellow	-5761
▁días	-5762
▁Given	-5763
▁aware	-5764
▁campo	-5765
▁anyone	-5766
▁cambio	-5767
▁double	-5768
▁analyze	-5769
▁generar	-5770
▁collection	-5771
▁developing	-5772
33	-5773
json	-5774
торы	-5775
▁isn	-5776
▁pun	-5777
▁мен	-5778
undial	-5779
▁Techn	-5780
▁escal	-5781
▁spirit	-5782
าย	-5783
▁你	-5784
\")	-5785
eme	-5786
bles	-5787
▁hip	-5788
▁pon	-5789
title	-5790
преде	-5791
▁diff	-5792
▁rend	-5793
▁absor	-5794
▁equipo	-5795
▁gustaría	-5796
life	-5797
nIns	-5798
inder	-5799
▁luck	-5800
▁shop	-5801
▁medida	-5802
▁separate	-5803
▁Absolutely	-5804
▁structures	-5805
nal	-5806
icar	-5807
▁Ant	-5808
enced	-5809
nWith	-5810
▁item	-5811
▁diagn	-5812
▁thick	-5813
▁receive	-5814
ln	-5815
ald	-5816
\";\	-5817
erca	-5818
▁alta	-5819
▁arqu	-5820
▁mole	-5821
▁mother	-5822
▁console	-5823
▁technical	-5824
▁desarrollar	-5825
▁temperatura	-5826
”,	-5827
ban	-5828
лей	-5829
comm	-5830
▁attrib	-5831
▁status	-5832
▁sociales	-5833
▁businesses	-5834
бя	-5835
lin	-5836
nCh	-5837
ibly	-5838
▁pen	-5839
▁vast	-5840
▁weak	-5841
▁encuentra	-5842
hy	-5843
▁!	-5844
▁Ob	-5845
стоя	-5846
▁obst	-5847
▁libro	-5848
▁metal	-5849
▁scale	-5850
▁doctor	-5851
▁listen	-5852
соб	-5853
▁Hi	-5854
▁eso	-5855
▁Pres	-5856
▁pair	-5857
álisis	-5858
▁China	-5859
▁gracias	-5860
▁minutos	-5861
เร	-5862
abe	-5863
eline	-5864
enses	-5865
nNote	-5866
▁chec	-5867
▁pand	-5868
▁sein	-5869
acción	-5870
pression	-5871
Pr	-5872
iors	-5873
▁pou	-5874
ativas	-5875
▁asegur	-5876
▁errors	-5877
▁tempor	-5878
▁tutorial	-5879
▁computing	-5880
pan	-5881
และ	-5882
▁mö	-5883
nPro	-5884
nSin	-5885
▁hora	-5886
▁Если	-5887
▁avanz	-5888
nAnswer	-5889
▁shared	-5890
▁capable	-5891
▁mediante	-5892
▁presence	-5893
ío	-5894
▁tro	-5895
ombres	-5896
▁traffic	-5897
▁challenge	-5898
izado	-5899
▁filos	-5900
▁leaves	-5901
▁expected	-5902
дь	-5903
inese	-5904
▁cert	-5905
▁plot	-5906
▁recon	-5907
▁reference	-5908
89	-5909
▁sky	-5910
▁дол	-5911
▁пла	-5912
ativos	-5913
ровать	-5914
▁redes	-5915
▁grande	-5916
▁wanted	-5917
nExample	-5918
▁slightly	-5919
55	-5920
模型	-5921
Your	-5922
▁Mac	-5923
▁senc	-5924
▁tort	-5925
▁brown	-5926
▁dough	-5927
▁beyond	-5928
ahr	-5929
ben	-5930
mar	-5931
дей	-5932
ран	-5933
bert	-5934
ento	-5935
ocal	-5936
ously	-5937
можно	-5938
▁Port	-5939
▁peace	-5940
ocument	-5941
▁Provide	-5942
▁equipment	-5943
▁guidelines	-5944
▁represents	-5945
ipe	-5946
aint	-5947
real	-5948
▁sod	-5949
жения	-5950
▁rice	-5951
ecraft	-5952
▁deben	-5953
▁domin	-5954
▁selec	-5955
anguage	-5956
▁програм	-5957
▁technique	-5958
?\"	-5959
ctr	-5960
7777	-5961
atas	-5962
oring	-5963
▁disfr	-5964
▁palabra	-5965
▁policies	-5966
TP	-5967
cha	-5968
унк	-5969
▁60	-5970
aper	-5971
part	-5972
▁объ	-5973
nNAME	-5974
▁King	-5975
▁board	-5976
▁conocido	-5977
▁advantage	-5978
▁atmosphere	-5979
DE	-5980
No	-5981
oking	-5982
▁label	-5983
▁Define	-5984
Me	-5985
met	-5986
▁ep	-5987
เป็น	-5988
▁jud	-5989
▁soil	-5990
▁acord	-5991
issions	-5992
▁months	-5993
▁investment	-5994
AP	-5995
eso	-5996
plo	-5997
agram	-5998
umber	-5999
▁dial	-6000
ibilities	-6001
65	-6002
}{	-6003
自己	-6004
',\	-6005
uan	-6006
nfor	-6007
ught	-6008
▁пер	-6009
right	-6010
▁pict	-6011
▁wear	-6012
▁gives	-6013
▁Tierra	-6014
▁inspir	-6015
▁partir	-6016
▁generated	-6017
32	-6018
box	-6019
seg	-6020
▁él	-6021
anza	-6022
base	-6023
oles	-6024
very	-6025
▁жиз	-6026
aleza	-6027
poses	-6028
▁circu	-6029
▁usage	-6030
▁classic	-6031
▁trabajar	-6032
3\	-6033
eper	-6034
▁méd	-6035
▁came	-6036
▁compl	-6037
▁amplia	-6038
▁stories	-6039
ifications	-6040
▁necesitas	-6041
▁plataform	-6042
fe	-6043
omas	-6044
ungs	-6045
▁End	-6046
▁unl	-6047
▁var	-6048
apter	-6049
▁nice	-6050
▁инте	-6051
iately	-6052
▁miles	-6053
▁misma	-6054
▁planeta	-6055
▁integral	-6056
Fr	-6057
ango	-6058
▁High	-6059
▁bank	-6060
▁accom	-6061
▁posit	-6062
▁America	-6063
▁equation	-6064
▁decisiones	-6065
▁capabilities	-6066
alk	-6067
des	-6068
▁IP	-6069
estr	-6070
ความ	-6071
▁Pot	-6072
▁gan	-6073
▁mode	-6074
▁clase	-6075
▁guess	-6076
▁carbon	-6077
▁compat	-6078
▁phrase	-6079
▁supply	-6080
▁enhance	-6081
▁settings	-6082
▁productos	-6083
ан	-6084
alia	-6085
▁ren	-6086
▁luego	-6087
▁pizza	-6088
▁trees	-6089
esearch	-6090
▁estilo	-6091
▁latest	-6092
▁identity	-6093
▁teaspoon	-6094
zt	-6095
ів	-6096
帮助	-6097
:00	-6098
▁py	-6099
iote	-6100
plit	-6101
мени	-6102
▁Apr	-6103
▁ней	-6104
▁insp	-6105
▁stre	-6106
▁unit	-6107
amento	-6108
iveness	-6109
▁instal	-6110
▁office	-6111
▁sample	-6112
▁comport	-6113
▁depende	-6114
▁podemos	-6115
▁national	-6116
▁Certainly	-6117
olla	-6118
▁cuán	-6119
▁haya	-6120
▁rule	-6121
▁universo	-6122
▁herramienta	-6123
75	-6124
▁sav	-6125
angle	-6126
anish	-6127
iling	-6128
ancing	-6129
encial	-6130
unning	-6131
▁ejerc	-6132
▁interf	-6133
▁economy	-6134
▁nothing	-6135
Te	-6136
isk	-6137
▁II	-6138
▁Spr	-6139
▁comment	-6140
▁supuesto	-6141
astructure	-6142
หร	-6143
azo	-6144
anos	-6145
onna	-6146
arias	-6147
▁Test	-6148
▁serie	-6149
▁instit	-6150
▁después	-6151
▁ensuring	-6152
▁proyecto	-6153
▁recommendations	-6154
wid	-6155
▁мы	-6156
ffer	-6157
▁hit	-6158
▁iron	-6159
▁nada	-6160
▁свои	-6161
▁birth	-6162
▁infect	-6163
▁thread	-6164
▁seeking	-6165
▁confusion	-6166
HP	-6167
学习	-6168
▁rh	-6169
▁эти	-6170
▁almac	-6171
▁theor	-6172
▁fuente	-6173
▁creation	-6174
▁released	-6175
▁opportunity	-6176
▁consciousness	-6177
cipl	-6178
oute	-6179
▁\\\	-6180
чение	-6181
▁apps	-6182
▁excl	-6183
▁sell	-6184
▁моде	-6185
▁manner	-6186
▁myself	-6187
nAnother	-6188
▁navigate	-6189
▁encourage	-6190
จะ	-6191
ará	-6192
uns	-6193
▁0,	-6194
reek	-6195
нной	-6196
antic	-6197
level	-6198
▁esté	-6199
▁sean	-6200
▁sold	-6201
▁unos	-6202
▁común	-6203
▁enfer	-6204
▁votre	-6205
▁neuron	-6206
▁insurance	-6207
nm	-6208
中国	-6209
▁Ag	-6210
');\	-6211
cios	-6212
▁Sup	-6213
▁bei	-6214
ading	-6215
nPara	-6216
verse	-6217
▁gard	-6218
▁imagen	-6219
▁empezar	-6220
▁definition	-6221
▁interactions	-6222
чь	-6223
ció	-6224
▁Ze	-6225
▁Ein	-6226
▁тре	-6227
▁songs	-6228
▁cuanto	-6229
▁British	-6230
▁Jo	-6231
▁iP	-6232
cons	-6233
ceite	-6234
▁deal	-6235
▁tone	-6236
▁vuel	-6237
▁asked	-6238
▁verdad	-6239
▁routine	-6240
UR	-6241
ni	-6242
iam	-6243
ของ	-6244
gred	-6245
type	-6246
▁Cor	-6247
▁bra	-6248
▁señ	-6249
uries	-6250
▁barr	-6251
▁took	-6252
include	-6253
▁giving	-6254
▁puntos	-6255
▁científic	-6256
24	-6257
nUn	-6258
write	-6259
▁magn	-6260
▁sand	-6261
▁calor	-6262
▁discr	-6263
▁flight	-6264
▁creación	-6265
▁ajust	-6266
▁decor	-6267
▁einem	-6268
▁prime	-6269
▁vision	-6270
▁mejores	-6271
▁European	-6272
▁controll	-6273
▁direction	-6274
▁exploring	-6275
пы	-6276
▁York	-6277
cience	-6278
▁schedule	-6279
▁4,	-6280
▁yog	-6281
minos	-6282
▁plug	-6283
entral	-6284
ername	-6285
▁dedic	-6286
▁strugg	-6287
▁Explain	-6288
▁animales	-6289
▁graphics	-6290
▁mechanics	-6291
xi	-6292
00,	-6293
▁Up	-6294
arlo	-6295
cher	-6296
▁Fin	-6297
▁gro	-6298
▁сле	-6299
words	-6300
▁Have	-6301
▁Will	-6302
▁fuel	-6303
▁growing	-6304
▁sentido	-6305
▁correctly	-6306
▁prioritize	-6307
ар	-6308
том	-6309
▁ecu	-6310
▁node	-6311
▁stra	-6312
▁você	-6313
тельно	-6314
▁happen	-6315
▁powder	-6316
▁reducir	-6317
▁configuration	-6318
EO	-6319
ka	-6320
isp	-6321
iday	-6322
▁Что	-6323
image	-6324
▁door	-6325
▁vict	-6326
▁stars	-6327
▁existe	-6328
▁studies	-6329
▁anterior	-6330
▁términos	-6331
ól	-6332
-20	-6333
iot	-6334
ว่า	-6335
Cont	-6336
льно	-6337
▁Det	-6338
aches	-6339
known	-6340
▁время	-6341
▁criter	-6342
▁compare	-6343
▁programa	-6344
▁suggests	-6345
nb	-6346
oso	-6347
orge	-6348
plot	-6349
▁Rem	-6350
▁haz	-6351
▁hoy	-6352
▁},\	-6353
▁мно	-6354
▁Based	-6355
▁themes	-6356
▁volume	-6357
kr	-6358
жен	-6359
▁eta	-6360
uerda	-6361
▁Look	-6362
▁escu	-6363
▁moon	-6364
▁deriv	-6365
▁sales	-6366
▁trade	-6367
▁Amazon	-6368
▁photos	-6369
▁however	-6370
▁primary	-6371
']	-6372
';\	-6373
▁Ih	-6374
вить	-6375
▁desaf	-6376
▁circum	-6377
▁orient	-6378
▁electrón	-6379
~~	-6380
fil	-6381
iden	-6382
▁Bit	-6383
lines	-6384
▁purs	-6385
▁fabric	-6386
▁Instead	-6387
▁parents	-6388
5)	-6389
▁Fe	-6390
Text	-6391
▁Eth	-6392
▁copy	-6393
▁tall	-6394
▁heavy	-6395
▁arquitect	-6396
▁proyectos	-6397
')	-6398
ès	-6399
rad	-6400
nDes	-6401
▁plans	-6402
▁equival	-6403
▁existence	-6404
▁incorrect	-6405
▁naturaleza	-6406
La	-6407
าน	-6408
▁5.	-6409
otos	-6410
uten	-6411
▁Sel	-6412
▁poem	-6413
Cuáles	-6414
▁ingen	-6415
▁corpor	-6416
▁partes	-6417
▁continues	-6418
▁protection	-6419
='	-6420
ете	-6421
▁ice	-6422
▁tit	-6423
▁bomb	-6424
▁chance	-6425
▁impres	-6426
▁transpar	-6427
▁conceptos	-6428
MM	-6429
你的	-6430
▁gi	-6431
iado	-6432
▁lie	-6433
▁ord	-6434
▁hour	-6435
▁меня	-6436
▁North	-6437
▁alien	-6438
▁looks	-6439
▁случа	-6440
▁oportun	-6441
▁section	-6442
ql	-6443
进行	-6444
▁5,	-6445
▁mec	-6446
▁вас	-6447
▁extre	-6448
▁token	-6449
▁income	-6450
▁keyboard	-6451
▁materiales	-6452
nel	-6453
)."}	-6454
game	-6455
step	-6456
▁Sub	-6457
▁При	-6458
efore	-6459
ética	-6460
▁meal	-6461
▁être	-6462
ession	-6463
▁depth	-6464
▁estoy	-6465
▁perce	-6466
▁radio	-6467
▁sides	-6468
▁democr	-6469
▁landsc	-6470
▁Spanish	-6471
▁National	-6472
▁critical	-6473
▁particles	-6474
▁approximately	-6475
haps	-6476
.\""}	-6477
craft	-6478
▁lleg	-6479
▁Using	-6480
▁неско	-6481
▁Output	-6482
▁except	-6483
▁reward	-6484
▁maximum	-6485
▁ambiente	-6486
Im	-6487
sm	-6488
tax	-6489
edor	-6490
orno	-6491
▁nar	-6492
форма	-6493
▁Over	-6494
▁blan	-6495
▁café	-6496
▁guerra	-6497
▁secret	-6498
▁Chinese	-6499
▁paragraph	-6500
oto	-6501
кое	-6502
▁+=	-6503
▁yo	-6504
▁Ко	-6505
enty	-6506
iera	-6507
▁mad	-6508
itate	-6509
▁repet	-6510
▁academ	-6511
▁elimin	-6512
▁student	-6513
▁reliable	-6514
▁Sí	-6515
▁ру	-6516
onds	-6517
▁ped	-6518
▁iter	-6519
▁fruits	-6520
▁garant	-6521
▁profund	-6522
AC	-6523
我们	-6524
arg	-6525
кры	-6526
egin	-6527
▁god	-6528
▁weap	-6529
▁stick	-6530
▁будет	-6531
▁delicious	-6532
▁resulting	-6533
▁continuación	-6534
▁использовать	-6535
фе	-6536
▁3:	-6537
▁Не	-6538
more	-6539
рабо	-6540
▁fan	-6541
ffect	-6542
▁Face	-6543
▁fill	-6544
▁gibt	-6545
▁notes	-6546
▁pretty	-6547
▁choices	-6548
▁greatly	-6549
▁recover	-6550
▁protocol	-6551
nt	-6552
osen	-6553
using	-6554
Podrías	-6555
▁Engine	-6556
▁destac	-6557
▁compart	-6558
Mod	-6559
aga	-6560
rim	-6561
вых	-6562
▁Ed	-6563
inen	-6564
itat	-6565
uses	-6566
▁thor	-6567
▁Where	-6568
▁meant	-6569
▁hypoth	-6570
▁middle	-6571
▁efforts	-6572
izz	-6573
uto	-6574
▁sue	-6575
▁Ident	-6576
▁diseñ	-6577
▁logic	-6578
▁repro	-6579
▁stock	-6580
▁elabor	-6581
▁hablar	-6582
▁libros	-6583
▁llegar	-6584
▁styles	-6585
▁focused	-6586
▁significantly	-6587
LP	-6588
cour	-6589
omic	-6590
urch	-6591
▁каж	-6592
▁went	-6593
weight	-6594
tenance	-6595
▁Choose	-6596
▁impacto	-6597
▁restrict	-6598
▁является	-6599
▁connected	-6600
](	-6601
ez	-6602
rt	-6603
nRe	-6604
nSt	-6605
▁иг	-6606
icia	-6607
nNow	-6608
▁deg	-6609
iedad	-6610
nWhen	-6611
ключа	-6612
▁algu	-6613
▁rect	-6614
ifying	-6615
ughter	-6616
▁divis	-6617
example	-6618
▁tecnolog	-6619
▁técnicas	-6620
▁lenguajes	-6621
Es	-6622
uj	-6623
tein	-6624
untu	-6625
▁tun	-6626
style	-6627
▁astr	-6628
▁drag	-6629
▁paso	-6630
▁ries	-6631
▁tele	-6632
▁viel	-6633
ashing	-6634
cional	-6635
▁brief	-6636
▁elect	-6637
▁maybe	-6638
▁comunes	-6639
nQuestion	-6640
▁According	-6641
▁funciones	-6642
vi	-6643
SQL	-6644
free	-6645
▁Util	-6646
▁gets	-6647
▁glad	-6648
▁magic	-6649
▁arguments	-6650
่ง	-6651
eto	-6652
nNo	-6653
olf	-6654
alsa	-6655
bing	-6656
ised	-6657
▁Text	-6658
▁bibl	-6659
▁fecha	-6660
▁menor	-6661
▁width	-6662
▁artists	-6663
▁defined	-6664
▁podrían	-6665
▁insights	-6666
▁considering	-6667
otal	-6668
▁Cat	-6669
▁они	-6670
count	-6671
going	-6672
rough	-6673
▁Plan	-6674
▁menc	-6675
▁pobl	-6676
▁counter	-6677
▁realidad	-6678
éf	-6679
ols	-6680
aban	-6681
▁0;\	-6682
Puedes	-6683
▁tenga	-6684
▁concre	-6685
▁Regular	-6686
▁análisis	-6687
▁influenced	-6688
csv	-6689
iest	-6690
▁Haz	-6691
▁rac	-6692
index	-6693
▁Does	-6694
▁fore	-6695
ponent	-6696
▁campa	-6697
▁durch	-6698
▁haber	-6699
▁member	-6700
▁creativ	-6701
▁conjunto	-6702
▁alimentos	-6703
▁constante	-6704
▁distancia	-6705
▁ге	-6706
pace	-6707
▁king	-6708
▁okay	-6709
estyle	-6710
▁decre	-6711
▁simul	-6712
▁toxic	-6713
▁truth	-6714
gentina	-6715
▁learned	-6716
forcement	-6717
▁campaign	-6718
iny	-6719
iance	-6720
▁liqu	-6721
▁Since	-6722
▁craft	-6723
▁reput	-6724
▁muscle	-6725
▁complic	-6726
▁comenzar	-6727
▁creatures	-6728
▁described	-6729
▁practical	-6730
▁responder	-6731
▁infrastructure	-6732
шу	-6733
mon	-6734
▁Со	-6735
▁Ang	-6736
▁Seg	-6737
▁Form	-6738
▁ning	-6739
▁reply	-6740
▁employees	-6741
iche	-6742
init	-6743
чить	-6744
▁Bus	-6745
▁ter	-6746
▁vor	-6747
genes	-6748
prise	-6749
▁bajo	-6750
▁функ	-6751
▁crypt	-6752
▁enton	-6753
▁candid	-6754
▁coming	-6755
▁humana	-6756
▁Algunos	-6757
▁amounts	-6758
▁Remember	-6759
▁enfermed	-6760
▁potatoes	-6761
▁comunidad	-6762
▁regardless	-6763
▁comprensión	-6764
^^	-6765
duc	-6766
▁IN	-6767
▁ple	-6768
plate	-6769
▁Pero	-6770
▁Star	-6771
▁Super	-6772
▁degre	-6773
▁views	-6774
▁idioma	-6775
▁master	-6776
▁distint	-6777
▁descript	-6778
▁purposes	-6779
▁instrument	-6780
oro	-6781
▁RE	-6782
▁aw	-6783
ceed	-6784
дела	-6785
▁pie	-6786
циаль	-6787
▁Mach	-6788
▁cere	-6789
▁mostr	-6790
▁papel	-6791
▁France	-6792
▁decide	-6793
▁saying	-6794
▁опреде	-6795
▁alguien	-6796
▁cebolla	-6797
▁degrees	-6798
▁financi	-6799
▁thorough	-6800
▁administr	-6801
▁relatively	-6802
▁representation	-6803
->	-6804
SP	-6805
是一	-6806
ici	-6807
quir	-6808
uber	-6809
ulas	-6810
▁Ret	-6811
▁trig	-6812
▁clave	-6813
▁spend	-6814
▁fantas	-6815
▁stable	-6816
▁usando	-6817
▁battery	-6818
RI	-6819
td	-6820
▁х	-6821
iga	-6822
affe	-6823
ícula	-6824
▁Type	-6825
ishing	-6826
▁tests	-6827
▁Germany	-6828
▁cambios	-6829
▁descubr	-6830
ris	-6831
▁ru	-6832
hone	-6833
ífica	-6834
▁List	-6835
▁stir	-6836
▁town	-6837
▁carry	-6838
▁juice	-6839
▁conect	-6840
▁believed	-6841
RO	-6842
pi	-6843
▁wa	-6844
coin	-6845
▁saw	-6846
osing	-6847
▁Real	-6848
▁fest	-6849
▁join	-6850
▁verb	-6851
▁Roman	-6852
▁solid	-6853
▁contro	-6854
▁channel	-6855
▁contrast	-6856
▁millones	-6857
▁straight	-6858
aud	-6859
бра	-6860
ื่อ	-6861
frac	-6862
чита	-6863
▁Fre	-6864
▁bin	-6865
▁pin	-6866
▁drop	-6867
▁fruit	-6868
▁aceite	-6869
▁respuestas	-6870
oll	-6871
али	-6872
лич	-6873
▁sy	-6874
▁ال	-6875
culo	-6876
ière	-6877
▁Muse	-6878
▁myth	-6879
▁pull	-6880
▁Greek	-6881
▁South	-6882
▁quien	-6883
▁skill	-6884
▁waste	-6885
▁после	-6886
▁German	-6887
▁bacter	-6888
▁nuevas	-6889
▁ofrece	-6890
▁served	-6891
▁default	-6892
nBy	-6893
eler	-6894
▁nur	-6895
▁muse	-6896
▁narr	-6897
▁equil	-6898
process	-6899
▁hidden	-6900
▁module	-6901
▁almacen	-6902
▁attacks	-6903
▁nuclear	-6904
▁updated	-6905
▁Internet	-6906
▁improved	-6907
▁religious	-6908
▁appreciate	-6909
ิด	-6910
่ว	-6911
11.	-6912
▁Hy	-6913
iana	-6914
писа	-6915
▁Ens	-6916
▁Mex	-6917
▁gall	-6918
▁luch	-6919
▁nach	-6920
ometry	-6921
▁starts	-6922
▁incluir	-6923
▁commands	-6924
▁expensive	-6925
▁standards	-6926
▁personajes	-6927
84	-6928
fill	-6929
root	-6930
▁Day	-6931
▁nun	-6932
▁Time	-6933
▁enfr	-6934
▁keys	-6935
▁Estos	-6936
▁aumentar	-6937
▁entonces	-6938
▁dependiendo	-6939
NA	-6940
提供	-6941
bro	-6942
ili	-6943
sch	-6944
try	-6945
▁:=	-6946
▁LL	-6947
anta	-6948
▁kid	-6949
▁aber	-6950
ellent	-6951
▁browser	-6952
▁release	-6953
▁objetivos	-6954
▁maintaining	-6955
Al	-6956
[1	-6957
”\	-6958
▁mó	-6959
▁му	-6960
keit	-6961
tegr	-6962
нный	-6963
▁фор	-6964
▁wenn	-6965
String	-6966
▁rapid	-6967
▁veces	-6968
▁vegan	-6969
▁battle	-6970
▁cooked	-6971
▁honest	-6972
▁remain	-6973
▁strings	-6974
▁Research	-6975
▁generation	-6976
▁engineering	-6977
DF	-6978
▁Л	-6979
ady	-6980
eks	-6981
och	-6982
....	-6983
peed	-6984
▁Mal	-6985
▁ses	-6986
odies	-6987
pread	-6988
▁Both	-6989
▁Desp	-6990
anging	-6991
▁pasta	-6992
▁wants	-6993
▁remains	-6994
▁walking	-6995
▁underlying	-6996
!\"	-6997
cor	-6998
▁GPU	-6999
▁ton	-7000
▁свя	-7001
width	-7002
▁legs	-7003
▁segu	-7004
▁tendr	-7005
▁assess	-7006
▁helped	-7007
▁motion	-7008
▁ciencia	-7009
▁funciona	-7010
▁purchase	-7011
▁supports	-7012
gas	-7013
sub	-7014
▁añ	-7015
▁nor	-7016
▁ella	-7017
▁kill	-7018
nFinal	-7019
▁mobile	-7020
▁variar	-7021
▁calcular	-7022
▁theories	-7023
▁populares	-7024
▁appearance	-7025
智能	-7026
];\	-7027
ini	-7028
rit	-7029
vez	-7030
вые	-7031
▁cm	-7032
case	-7033
ries	-7034
▁From	-7035
▁diam	-7036
▁park	-7037
▁gramm	-7038
▁truly	-7039
▁translation	-7040
HT	-7041
нее	-7042
▁__	-7043
fast	-7044
зыва	-7045
▁CPU	-7046
▁reb	-7047
ifica	-7048
▁Park	-7049
essage	-7050
▁hecho	-7051
▁genetic	-7052
▁updates	-7053
▁capacity	-7054
▁accessible	-7055
▁movimiento	-7056
▁proporcionar	-7057
gu	-7058
erd	-7059
ким	-7060
рит	-7061
▁0\	-7062
Time	-7063
icip	-7064
ured	-7065
▁zum	-7066
color	-7067
ierno	-7068
▁core	-7069
▁wait	-7070
▁había	-7071
▁libre	-7072
connect	-7073
▁opinions	-7074
▁computers	-7075
UT	-7076
open	-7077
osten	-7078
script	-7079
▁temas	-7080
▁cancer	-7081
▁extension	-7082
▁advantages	-7083
▁considerar	-7084
数据	-7085
urg	-7086
бле	-7087
dict	-7088
нако	-7089
\"."}	-7090
eting	-7091
▁Cent	-7092
▁Char	-7093
▁City	-7094
▁Find	-7095
stream	-7096
▁bright	-7097
▁siendo	-7098
▁debería	-7099
▁highest	-7100
▁Sentence	-7101
▁política	-7102
eah	-7103
▁Was	-7104
▁необ	-7105
которы	-7106
▁Avoid	-7107
▁Black	-7108
▁Enjoy	-7109
▁broad	-7110
▁shown	-7111
▁deploy	-7112
▁societ	-7113
▁eventually	-7114
▁established	-7115
/20	-7116
arp	-7117
▁:\	-7118
▁Po	-7119
▁nu	-7120
zing	-7121
array	-7122
▁Crea	-7123
▁noch	-7124
▁sint	-7125
▁trou	-7126
nIngred	-7127
▁therap	-7128
▁outline	-7129
▁specified	-7130
`.	-7131
หม	-7132
dro	-7133
fin	-7134
gal	-7135
кра	-7136
etro	-7137
azione	-7138
▁citiz	-7139
▁combust	-7140
▁letters	-7141
▁nuestra	-7142
▁willing	-7143
67	-7144
сла	-7145
eren	-7146
idor	-7147
itan	-7148
reib	-7149
ника	-7150
▁cub	-7151
▁тем	-7152
▁Mart	-7153
▁alto	-7154
▁knew	-7155
▁onto	-7156
▁qued	-7157
▁ship	-7158
▁grupo	-7159
▁suppl	-7160
▁plenty	-7161
▁signal	-7162
▁driving	-7163
▁determin	-7164
▁producto	-7165
▁resultados	-7166
▁limitations	-7167
ji	-7168
▁ду	-7169
cast	-7170
imos	-7171
▁Mag	-7172
▁PHP	-7173
▁peu	-7174
ograf	-7175
power	-7176
▁Prim	-7177
▁calm	-7178
▁void	-7179
coming	-7180
iminal	-7181
▁amigos	-7182
▁parent	-7183
▁minimum	-7184
▁passion	-7185
▁percent	-7186
▁expertise	-7187
▁experienced	-7188
85	-7189
hydr	-7190
▁тех	-7191
gebra	-7192
▁cars	-7193
▁pant	-7194
▁phen	-7195
▁runs	-7196
▁essay	-7197
▁abstract	-7198
▁installed	-7199
▁restaurant	-7200
ñas	-7201
Data	-7202
year	-7203
▁Max	-7204
▁Tur	-7205
▁cad	-7206
▁haben	-7207
▁sigue	-7208
▁severe	-7209
▁neighbor	-7210
▁conocimiento	-7211
är	-7212
лі	-7213
lim	-7214
емы	-7215
hips	-7216
nLos	-7217
▁cro	-7218
xygen	-7219
▁fasc	-7220
▁firm	-7221
iantes	-7222
▁cours	-7223
▁older	-7224
▁branch	-7225
▁cities	-7226
▁conven	-7227
▁Another	-7228
▁bibliote	-7229
▁determined	-7230
▁personality	-7231
▁construcción	-7232
▁functionality	-7233
VID	-7234
änd	-7235
ред	-7236
▁(1	-7237
eral	-7238
tere	-7239
▁cogn	-7240
▁Other	-7241
▁corre	-7242
▁нейро	-7243
▁debate	-7244
▁transm	-7245
▁consejos	-7246
▁machines	-7247
▁beneficial	-7248
▁transportation	-7249
De	-7250
ці	-7251
▁我	-7252
nis	-7253
?\"\	-7254
▁cer	-7255
▁ven	-7256
▁habl	-7257
▁poor	-7258
▁crime	-7259
▁cuadr	-7260
▁freed	-7261
▁People	-7262
▁assign	-7263
▁bottom	-7264
▁invers	-7265
▁conserv	-7266
▁Language	-7267
▁overview	-7268
่น	-7269
nif	-7270
▁Son	-7271
вания	-7272
▁дела	-7273
output	-7274
result	-7275
▁camera	-7276
▁summar	-7277
▁opening	-7278
▁evaluate	-7279
▁carefully	-7280
▁использова	-7281
▁consumption	-7282
▁diferencias	-7283
不同	-7284
▁mid	-7285
▁pul	-7286
front	-7287
▁ecos	-7288
▁scal	-7289
▁apart	-7290
▁emple	-7291
▁float	-7292
▁onion	-7293
▁rates	-7294
▁mezcla	-7295
▁prices	-7296
▁dynamic	-7297
▁Japanese	-7298
▁equilibr	-7299
▁estrateg	-7300
▁requiere	-7301
▁Christmas	-7302
▁adventure	-7303
▁encounter	-7304
▁disponibles	-7305
ref	-7306
▁90	-7307
▁ic	-7308
▁ба	-7309
heit	-7310
irse	-7311
wort	-7312
▁Gal	-7313
▁lec	-7314
▁Tell	-7315
▁acid	-7316
▁fear	-7317
▁inher	-7318
▁stores	-7319
▁больше	-7320
▁nuestro	-7321
▁handling	-7322
▁humanity	-7323
▁primarily	-7324
▁dispositivos	-7325
90	-7326
Id	-7327
200	-7328
pty	-7329
sum	-7330
sing	-7331
▁Sun	-7332
ailed	-7333
icult	-7334
▁snow	-7335
▁само	-7336
person	-7337
▁sites	-7338
▁acceso	-7339
▁assume	-7340
▁wealth	-7341
▁impress	-7342
▁exchange	-7343
▁numerous	-7344
▁president	-7345
üh	-7346
рі	-7347
dir	-7348
avel	-7349
ступ	-7350
eless	-7351
oster	-7352
▁spot	-7353
atural	-7354
▁excess	-7355
▁sports	-7356
nOptions	-7357
▁cambiar	-7358
▁helping	-7359
▁explicar	-7360
▁immediately	-7361
IA	-7362
iu	-7363
ём	-7364
дов	-7365
▁вс	-7366
with	-7367
tress	-7368
▁adap	-7369
▁diese	-7370
▁reven	-7371
▁teams	-7372
▁beauty	-7373
▁launch	-7374
▁prepare	-7375
▁frequency	-7376
▁implications	-7377
??	-7378
ND	-7379
code	-7380
heet	-7381
entar	-7382
nStep	-7383
▁cups	-7384
▁masa	-7385
▁стра	-7386
▁siglo	-7387
▁trata	-7388
▁render	-7389
▁syntax	-7390
▁tamaño	-7391
▁deliver	-7392
▁televis	-7393
▁received	-7394
▁probability	-7395
▁implementing	-7396
▁personalized	-7397
▁perspectives	-7398
äh	-7399
def	-7400
▁Ра	-7401
▁ign	-7402
▁Word	-7403
▁blog	-7404
▁opinion	-7405
▁reviews	-7406
▁resource	-7407
▁lifestyle	-7408
▁interactive	-7409
ogr	-7410
▁whe	-7411
▁ско	-7412
▁mane	-7413
▁rows	-7414
▁será	-7415
ágenes	-7416
▁Input	-7417
▁gusto	-7418
▁horas	-7419
▁empath	-7420
▁vehicle	-7421
▁violence	-7422
▁regarding	-7423
▁temperatures	-7424
Er	-7425
OL	-7426
WS	-7427
uv	-7428
ге	-7429
ERT	-7430
рая	-7431
mark	-7432
nLet	-7433
umin	-7434
▁Fun	-7435
▁cats	-7436
▁суще	-7437
nesses	-7438
▁comme	-7439
holders	-7440
▁filosof	-7441
▁refiere	-7442
▁becoming	-7443
▁overcome	-7444
▁programar	-7445
▁scientists	-7446
max	-7447
vey	-7448
íos	-7449
йти	-7450
тра	-7451
่าง	-7452
▁гра	-7453
ische	-7454
▁anime	-7455
▁dress	-7456
▁refle	-7457
▁Design	-7458
▁thanks	-7459
▁innovation	-7460
SV	-7461
▁@	-7462
elp	-7463
nos	-7464
ensa	-7465
ería	-7466
fall	-7467
item	-7468
▁Der	-7469
▁Leg	-7470
▁déc	-7471
▁pag	-7472
▁gift	-7473
▁зави	-7474
▁revis	-7475
▁external	-7476
▁construir	-7477
▁extremely	-7478
▁definitely	-7479
_3	-7480
axis	-7481
▁held	-7482
▁jobs	-7483
▁leer	-7484
ieving	-7485
▁Maybe	-7486
▁Place	-7487
▁alone	-7488
тически	-7489
▁circle	-7490
▁можете	-7491
▁только	-7492
▁included	-7493
nAssistant	-7494
▁recognize	-7495
sk	-7496
อา	-7497
lla	-7498
жде	-7499
ulos	-7500
▁Ges	-7501
uting	-7502
▁Disc	-7503
▁Mich	-7504
▁alle	-7505
▁felt	-7506
▁vert	-7507
▁galax	-7508
atively	-7509
▁layers	-7510
▁libert	-7511
▁quiero	-7512
▁stored	-7513
▁clients	-7514
▁primero	-7515
▁imágenes	-7516
▁managing	-7517
▁blockchain	-7518
▁characteristics	-7519
щё	-7520
])\	-7521
enz	-7522
сов	-7523
▁ub	-7524
hand	-7525
inst	-7526
чень	-7527
▁Emp	-7528
▁bird	-7529
amples	-7530
▁fuerza	-7531
▁práctica	-7532
▁ax	-7533
▁lyr	-7534
жение	-7535
▁told	-7536
▁комп	-7537
aching	-7538
▁asist	-7539
▁estre	-7540
▁facts	-7541
▁seguro	-7542
▁balanced	-7543
▁distinct	-7544
▁promoting	-7545
▁remaining	-7546
▁situación	-7547
▁documentation	-7548
ES	-7549
▁Um	-7550
ioso	-7551
▁Rob	-7552
chied	-7553
iforn	-7554
▁James	-7555
▁sufic	-7556
▁throw	-7557
actions	-7558
▁aquell	-7559
▁degree	-7560
▁passed	-7561
▁static	-7562
▁discipl	-7563
▁информа	-7564
▁Facebook	-7565
▁entrenamiento	-7566
ях	-7567
тро	-7568
▁Az	-7569
pack	-7570
▁alb	-7571
▁jed	-7572
▁Code	-7573
▁полу	-7574
ashion	-7575
▁cards	-7576
▁preoc	-7577
▁trial	-7578
▁units	-7579
▁Depend	-7580
▁editor	-7581
▁injury	-7582
▁conocer	-7583
▁University	-7584
▁producción	-7585
íc	-7586
]"}	-7587
aja	-7588
jer	-7589
tet	-7590
yal	-7591
▁Du	-7592
▁ih	-7593
alse	-7594
main	-7595
▁Air	-7596
▁Next	-7597
▁ense	-7598
▁nave	-7599
▁cumpl	-7600
▁dolor	-7601
▁estén	-7602
▁frecu	-7603
▁данных	-7604
▁passage	-7605
▁atención	-7606
▁возможно	-7607
หน	-7608
opy	-7609
erta	-7610
rics	-7611
uros	-7612
atter	-7613
▁arte	-7614
length	-7615
urrent	-7616
▁estad	-7617
▁проце	-7618
related	-7619
▁combined	-7620
бли	-7621
▁Sur	-7622
label	-7623
▁adop	-7624
▁hier	-7625
▁paid	-7626
▁reve	-7627
▁tard	-7628
uation	-7629
▁Estas	-7630
▁nueva	-7631
▁linear	-7632
ensional	-7633
▁mercado	-7634
▁sharing	-7635
▁highlight	-7636
ms	-7637
що	-7638
api	-7639
osp	-7640
rot	-7641
ást	-7642
▁AM	-7643
▁Pa	-7644
Open	-7645
onym	-7646
▁aún	-7647
▁joy	-7648
▁rid	-7649
imate	-7650
▁says	-7651
▁sino	-7652
number	-7653
▁viaje	-7654
ifornia	-7655
▁gravity	-7656
▁humanidad	-7657
▁interview	-7658
▁commercial	-7659
▁competition	-7660
uar	-7661
▁->	-7662
▁mí	-7663
▁ox	-7664
oken	-7665
tres	-7666
тери	-7667
หรือ	-7668
emple	-7669
istry	-7670
▁volt	-7671
▁ahead	-7672
▁guard	-7673
▁Before	-7674
▁alcanz	-7675
▁expans	-7676
ucciones	-7677
▁benefit	-7678
▁disfrut	-7679
▁memoria	-7680
▁métodos	-7681
▁plastic	-7682
▁superior	-7683
▁maintenance	-7684
▁tecnologías	-7685
82	-7686
86	-7687
BA	-7688
bi	-7689
das	-7690
fen	-7691
nDe	-7692
vil	-7693
Hola	-7694
▁Our	-7695
allow	-7696
apped	-7697
etros	-7698
▁ajud	-7699
▁apoy	-7700
▁edge	-7701
▁Power	-7702
▁gases	-7703
▁memor	-7704
▁Social	-7705
▁conver	-7706
▁suffer	-7707
▁offering	-7708
▁continued	-7709
▁rendimiento	-7710
ác	-7711
10,	-7712
####	-7713
\"?\	-7714
▁500	-7715
▁Hol	-7716
▁boy	-7717
▁alred	-7718
▁dance	-7719
▁faire	-7720
▁couple	-7721
▁wonder	-7722
▁changed	-7723
▁hacerlo	-7724
▁jugador	-7725
▁followed	-7726
▁необходи	-7727
▁Implement	-7728
▁subjective	-7729
▁mathematics	-7730
▁construction	-7731
1:	-7732
35	-7733
4\	-7734
⠀⠀	-7735
Val	-7736
hop	-7737
lib	-7738
fera	-7739
▁cot	-7740
house	-7741
▁dice	-7742
▁hurt	-7743
▁soll	-7744
making	-7745
▁avent	-7746
▁brush	-7747
▁lived	-7748
▁deeper	-7749
▁unable	-7750
▁applied	-7751
▁automatically	-7752
`\	-7753
kl	-7754
agr	-7755
txt	-7756
вая	-7757
▁][	-7758
▁пу	-7759
ocar	-7760
ander	-7761
avors	-7762
▁auto	-7763
ossible	-7764
▁courses	-7765
▁serving	-7766
▁verwend	-7767
▁circumst	-7768
'.	-7769
isa	-7770
ação	-7771
enew	-7772
uate	-7773
кого	-7774
▁Cap	-7775
▁Ent	-7776
▁spr	-7777
▁Most	-7778
▁fict	-7779
▁excel	-7780
▁neutr	-7781
▁raise	-7782
▁critic	-7783
▁parado	-7784
▁trends	-7785
▁benefic	-7786
▁constit	-7787
▁modelos	-7788
▁seconds	-7789
▁operation	-7790
▁discovered	-7791
▁environments	-7792
imm	-7793
nic	-7794
▁22	-7795
anes	-7796
util	-7797
úsqu	-7798
▁male	-7799
▁quím	-7800
▁shad	-7801
abetes	-7802
ecause	-7803
▁goods	-7804
▁mitig	-7805
▁pollo	-7806
▁comida	-7807
▁habits	-7808
▁lyrics	-7809
▁Program	-7810
▁básicos	-7811
▁decided	-7812
▁missing	-7813
▁несколько	-7814
▁industrial	-7815
▁conocimientos	-7816
]:	-7817
เก	-7818
12.	-7819
inc	-7820
ней	-7821
▁não	-7822
▁zur	-7823
▁вер	-7824
▁1000	-7825
▁cake	-7826
▁toma	-7827
▁wish	-7828
pected	-7829
▁argue	-7830
▁chord	-7831
▁систе	-7832
▁Health	-7833
▁happens	-7834
▁prompts	-7835
▁academic	-7836
▁contexto	-7837
▁beginning	-7838
⣿⣿	-7839
或者	-7840
ьте	-7841
aste	-7842
▁lóg	-7843
allel	-7844
nWhat	-7845
phone	-7846
ência	-7847
▁alph	-7848
▁coop	-7849
▁spin	-7850
▁área	-7851
▁female	-7852
▁huevos	-7853
▁llevar	-7854
▁accompl	-7855
▁columns	-7856
▁mayoría	-7857
▁regions	-7858
erstanding	-7859
ภา	-7860
ael	-7861
imo	-7862
uge	-7863
กับ	-7864
▁ép	-7865
▁pic	-7866
▁Game	-7867
▁rent	-7868
▁буду	-7869
ichtig	-7870
▁outdo	-7871
▁manual	-7872
▁reconoc	-7873
▁criminal	-7874
▁explicit	-7875
▁solución	-7876
▁documents	-7877
ві	-7878
▁;	-7879
pat	-7880
лет	-7881
▁sé	-7882
abul	-7883
isch	-7884
ogue	-7885
обра	-7886
▁org	-7887
ersto	-7888
idity	-7889
xiety	-7890
▁Pour	-7891
▁pages	-7892
▁onions	-7893
▁llamado	-7894
▁clothing	-7895
▁economía	-7896
▁tomatoes	-7897
▁professionals	-7898
);	-7899
ไป	-7900
▁É	-7901
这些	-7902
▁2\	-7903
▁ле	-7904
apor	-7905
grad	-7906
osis	-7907
▁197	-7908
▁Any	-7909
▁Bob	-7910
▁Bre	-7911
▁fly	-7912
▁чем	-7913
anges	-7914
frame	-7915
illet	-7916
inate	-7917
úrate	-7918
▁cuis	-7919
▁nerv	-7920
apping	-7921
▁imper	-7922
▁round	-7923
▁sheet	-7924
pository	-7925
▁chatbot	-7926
▁excellent	-7927
▁locations	-7928
▁actividades	-7929
ye	-7930
yo	-7931
map	-7932
кре	-7933
lass	-7934
пера	-7935
▁mur	-7936
▁кла	-7937
appro	-7938
▁born	-7939
▁dust	-7940
▁обще	-7941
▁beans	-7942
▁oppos	-7943
▁única	-7944
▁просто	-7945
▁meeting	-7946
▁accident	-7947
▁flexible	-7948
▁protagon	-7949
▁matemáticas	-7950
IP	-7951
以下	-7952
Col	-7953
_1,	-7954
▁Di	-7955
atro	-7956
▁2022	-7957
▁burn	-7958
▁joke	-7959
▁lapt	-7960
▁poll	-7961
▁обла	-7962
▁floor	-7963
▁roles	-7964
▁этого	-7965
erstood	-7966
▁binary	-7967
▁combine	-7968
▁cleaning	-7969
▁soluciones	-7970
▁comunicación	-7971
87	-7972
IG	-7973
Sc	-7974
},	-7975
uno	-7976
них	-7977
ння	-7978
▁['	-7979
▁Del	-7980
idade	-7981
▁font	-7982
▁cuales	-7983
▁posición	-7984
▁sentiment	-7985
▁philosophy	-7986
([	-7987
US	-7988
чу	-7989
ded	-7990
tor	-7991
uye	-7992
lier	-7993
uper	-7994
estic	-7995
oding	-7996
ormal	-7997
▁Soft	-7998
▁puzz	-7999
▁tried	-8000
▁weeks	-8001
▁investigación	-8002
iox	-8003
рой	-8004
▁196	-8005
▁obl	-8006
ifier	-8007
▁cred	-8008
▁peso	-8009
nHuman	-8010
▁horiz	-8011
▁mouth	-8012
▁prueb	-8013
▁advert	-8014
▁drinks	-8015
▁incred	-8016
▁presid	-8017
inations	-8018
▁incluye	-8019
▁painting	-8020
▁ecosystem	-8021
▁sensitive	-8022
▁circumstances	-8023
(2	-8024
top	-8025
ince	-8026
стра	-8027
▁seres	-8028
▁stage	-8029
▁следу	-8030
▁noting	-8031
▁worked	-8032
▁integer	-8033
▁morning	-8034
▁exposure	-8035
▁philosophical	-8036
((	-8037
です	-8038
vid	-8039
▁.\	-8040
▁27	-8041
acon	-8042
iser	-8043
▁Rub	-8044
elles	-8045
▁html	-8046
▁vect	-8047
▁moist	-8048
▁salsa	-8049
▁synth	-8050
▁lograr	-8051
▁winter	-8052
▁включа	-8053
▁partner	-8054
▁preocup	-8055
▁internal	-8056
▁optimize	-8057
▁adicional	-8058
▁accurately	-8059
▁completion	-8060
▁independent	-8061
Sh	-8062
人工	-8063
▁Да	-8064
▁Tom	-8065
▁rev	-8066
Error	-8067
puter	-8068
▁(200	-8069
▁stim	-8070
▁autor	-8071
▁drugs	-8072
▁solic	-8073
▁Docker	-8074
▁precio	-8075
▁Problem	-8076
▁anxiety	-8077
▁entorno	-8078
▁accounts	-8079
▁alrededor	-8080
▁controvers	-8081
▁condiciones	-8082
▁recognition	-8083
▁videojuegos	-8084
技术	-8085
arts	-8086
▁Dep	-8087
▁Wie	-8088
▁cál	-8089
▁сер	-8090
pload	-8091
thern	-8092
▁Main	-8093
▁wine	-8094
emente	-8095
▁Harry	-8096
▁ahora	-8097
▁nunca	-8098
▁During	-8099
▁afford	-8100
▁forces	-8101
▁pandas	-8102
▁familia	-8103
▁electricity	-8104
▁necessarily	-8105
▁ingredientes	-8106
GB	-8107
],\	-8108
▁ID	-8109
▁Ir	-8110
ancy	-8111
▁Das	-8112
▁Deb	-8113
▁seu	-8114
iring	-8115
▁Imag	-8116
▁niño	-8117
▁suel	-8118
▁исто	-8119
▁agent	-8120
▁сдела	-8121
nAdemás	-8122
▁calend	-8123
▁elegir	-8124
▁manten	-8125
▁estudio	-8126
▁keeping	-8127
▁Practice	-8128
▁Artificial	-8129
▁California	-8130
▁boundaries	-8131
▁importancia	-8132
▁aproximadamente	-8133
6\	-8134
IC	-8135
нг	-8136
คร	-8137
时间	-8138
没有	-8139
edy	-8140
kin	-8141
mes	-8142
▁ta	-8143
ogram	-8144
▁Jack	-8145
▁sart	-8146
iendas	-8147
▁alert	-8148
▁displ	-8149
▁recib	-8150
▁seeds	-8151
▁нужно	-8152
úsqueda	-8153
▁recipes	-8154
▁workers	-8155
▁dedicated	-8156
▁evolution	-8157
▁programas	-8158
mp	-8159
ิน	-8160
▁Вы	-8161
是一个	-8162
acci	-8163
amil	-8164
▁bis	-8165
▁beef	-8166
etical	-8167
áticos	-8168
▁capaz	-8169
▁jugar	-8170
▁phras	-8171
▁когда	-8172
▁различ	-8173
▁leaving	-8174
▁matches	-8175
▁muestra	-8176
▁permitir	-8177
▁Information	-8178
gn	-8179
▁Х	-8180
nIs	-8181
▁Cy	-8182
▁Ok	-8183
aked	-8184
▁emb	-8185
▁был	-8186
▁lose	-8187
ística	-8188
▁angle	-8189
▁dried	-8190
▁máxim	-8191
▁rough	-8192
▁tabla	-8193
▁очень	-8194
ificult	-8195
nOutput	-8196
▁Calcul	-8197
▁leader	-8198
▁oxygen	-8199
iffusion	-8200
ulations	-8201
▁mission	-8202
▁utilizado	-8203
▁statements	-8204
▁comportamiento	-8205
AB	-8206
DB	-8207
hes	-8208
oli	-8209
мет	-8210
▁AR	-8211
▁LLM	-8212
▁дей	-8213
model	-8214
reate	-8215
нения	-8216
▁Dies	-8217
▁Show	-8218
▁fond	-8219
▁zero	-8220
iments	-8221
▁Union	-8222
▁áreas	-8223
▁college	-8224
▁ongoing	-8225
▁outputs	-8226
▁personaje	-8227
▁contributions	-8228
-8	-8229
nx	-8230
其他	-8231
这个	-8232
▁Eg	-8233
atus	-8234
▁Pal	-8235
▁Sor	-8236
▁Sum	-8237
▁ine	-8238
▁usa	-8239
ienen	-8240
ienta	-8241
liche	-8242
▁enseñ	-8243
▁lights	-8244
▁spaces	-8245
▁público	-8246
▁provider	-8247
▁superfic	-8248
▁supervis	-8249
▁constantly	-8250
He	-8251
ตั	-8252
eln	-8253
lor	-8254
ott	-8255
áng	-8256
лся	-8257
▁Kr	-8258
▁ал	-8259
▁Ext	-8260
▁Ten	-8261
▁без	-8262
днако	-8263
▁boil	-8264
▁menu	-8265
▁shot	-8266
▁exhib	-8267
▁falta	-8268
▁много	-8269
▁inputs	-8270
▁magnet	-8271
▁informed	-8272
▁pantalla	-8273
▁jugadores	-8274
pm	-8275
信息	-8276
roy	-8277
вто	-8278
จาก	-8279
▁iz	-8280
azón	-8281
nRec	-8282
▁LED	-8283
▁sir	-8284
comes	-8285
ician	-8286
izada	-8287
ktion	-8288
▁encr	-8289
▁mehr	-8290
▁pref	-8291
▁terc	-8292
ugment	-8293
▁cable	-8294
▁chain	-8295
▁leads	-8296
▁loved	-8297
▁vista	-8298
acement	-8299
▁repair	-8300
▁respir	-8301
▁процес	-8302
▁Science	-8303
▁reduced	-8304
▁Question	-8305
▁gradually	-8306
▁servicios	-8307
▁resistance	-8308
ju	-8309
oi	-8310
eli	-8311
ฉัน	-8312
▁6.	-8313
▁eu	-8314
▁201	-8315
▁adm	-8316
▁tea	-8317
poons	-8318
▁Alex	-8319
▁basa	-8320
▁fres	-8321
▁swim	-8322
▁Exper	-8323
▁cycle	-8324
urrency	-8325
▁Commun	-8326
▁Encour	-8327
▁biases	-8328
▁gravit	-8329
▁limits	-8330
▁notice	-8331
▁интере	-8332
▁justice	-8333
▁queries	-8334
▁técnica	-8335
▁estimate	-8336
▁produced	-8337
▁vegetable	-8338
▁equivalent	-8339
▁innovative	-8340
▁surrounding	-8341
1)\	-8342
▁23	-8343
▁ша	-8344
вого	-8345
нить	-8346
▁rig	-8347
endre	-8348
horus	-8349
water	-8350
▁azul	-8351
itchen	-8352
itudes	-8353
▁fixed	-8354
▁plays	-8355
▁shoot	-8356
▁deseas	-8357
▁puedan	-8358
cimiento	-8359
▁dirección	-8360
▁emergency	-8361
▁listening	-8362
={	-8363
ír	-8364
рт	-8365
ala	-8366
ups	-8367
ประ	-8368
▁1)	-8369
▁...	-8370
itors	-8371
▁proof	-8372
▁людей	-8373
▁couldn	-8374
▁dinero	-8375
▁indeed	-8376
▁insect	-8377
▁manager	-8378
▁achieved	-8379
▁prepared	-8380
▁refriger	-8381
▁políticas	-8382
PE	-8383
通过	-8384
aca	-8385
▁28	-8386
enas	-8387
here	-8388
wind	-8389
▁aid	-8390
▁cha	-8391
uales	-8392
▁Resp	-8393
▁bath	-8394
▁tamb	-8395
▁wife	-8396
active	-8397
▁Unity	-8398
▁birds	-8399
▁almost	-8400
▁efecto	-8401
▁repeat	-8402
▁slowly	-8403
▁billion	-8404
▁approaches	-8405
▁improvement	-8406
Un	-8407
ör	-8408
По	-8409
ATE	-8410
ità	-8411
кла	-8412
000,	-8413
▁Mer	-8414
▁aso	-8415
▁луч	-8416
estar	-8417
gling	-8418
random	-8419
▁leche	-8420
▁niños	-8421
▁himself	-8422
▁incluso	-8423
▁payment	-8424
▁specify	-8425
▁wearing	-8426
▁Argentina	-8427
▁diferente	-8428
▁published	-8429
▁strengths	-8430
▁responsibility	-8431
èn	-8432
อบ	-8433
isl	-8434
nst	-8435
лом	-8436
▁4:	-8437
ikip	-8438
▁Aus	-8439
▁Opt	-8440
▁nom	-8441
▁sud	-8442
berry	-8443
ester	-8444
▁коли	-8445
▁agree	-8446
▁paint	-8447
comfort	-8448
▁digest	-8449
▁police	-8450
▁вопрос	-8451
▁Western	-8452
▁nombres	-8453
▁visitar	-8454
▁calories	-8455
▁derechos	-8456
▁eficiente	-8457
▁landscape	-8458
▁integration	-8459
oe	-8460
▁DE	-8461
What	-8462
ielo	-8463
nSol	-8464
▁1/4	-8465
▁том	-8466
▁evil	-8467
▁mood	-8468
▁intel	-8469
▁ocean	-8470
▁plazo	-8471
▁Russia	-8472
▁canvas	-8473
▁Italian	-8474
▁entrada	-8475
▁workout	-8476
▁probable	-8477
▁repository	-8478
▁específicas	-8479
/0	-8480
UI	-8481
้อ	-8482
▁Ü	-8483
如何	-8484
dim	-8485
пер	-8486
▁Lu	-8487
cido	-8488
etas	-8489
人工智能	-8490
orrow	-8491
▁adds	-8492
▁json	-8493
▁Excel	-8494
▁renew	-8495
▁chosen	-8496
▁folder	-8497
▁menudo	-8498
▁tomate	-8499
▁freedom	-8500
▁retrieve	-8501
▁scenario	-8502
▁reactions	-8503
▁comprender	-8504
▁containing	-8505
97	-8506
ใช	-8507
().	-8508
cur	-8509
lie	-8510
nAt	-8511
omo	-8512
umn	-8513
▁70	-8514
tros	-8515
▁sen	-8516
▁lect	-8517
▁soup	-8518
▁отно	-8519
▁этом	-8520
lichen	-8521
чество	-8522
▁Water	-8523
▁cuest	-8524
▁mujer	-8525
▁thank	-8526
▁Gracias	-8527
▁earlier	-8528
▁experts	-8529
▁behaviors	-8530
▁confident	-8531
▁impossible	-8532
ajo	-8533
asts	-8534
mail	-8535
ucle	-8536
▁fis	-8537
▁ger	-8538
uerra	-8539
▁clas	-8540
▁mich	-8541
▁alter	-8542
▁signs	-8543
▁yellow	-8544
▁friendly	-8545
▁indicate	-8546
▁interior	-8547
▁Minecraft	-8548
ae	-8549
ит	-8550
iso	-8551
жду	-8552
кую	-8553
сты	-8554
▁OR	-8555
():\	-8556
ложи	-8557
▁san	-8558
▁eres	-8559
▁modo	-8560
▁toda	-8561
▁ваше	-8562
вления	-8563
▁ambos	-8564
▁sitio	-8565
ocation	-8566
ustomer	-8567
▁obtain	-8568
amientos	-8569
▁oficial	-8570
▁búsqueda	-8571
▁category	-8572
▁controlar	-8573
▁developer	-8574
!!	-8575
ié	-8576
ox	-8577
ég	-8578
aco	-8579
бор	-8580
тия	-8581
юсь	-8582
kens	-8583
raid	-8584
▁ещё	-8585
iería	-8586
ikely	-8587
trans	-8588
▁dism	-8589
▁edad	-8590
▁gato	-8591
urther	-8592
▁boost	-8593
▁inten	-8594
▁Cuando	-8595
▁attach	-8596
▁domain	-8597
▁sentir	-8598
▁ambient	-8599
▁concise	-8600
▁efectos	-8601
▁lugares	-8602
▁agricult	-8603
▁vehicles	-8604
▁confidence	-8605
▁personales	-8606
4)	-8607
oz	-8608
жу	-8609
ibu	-8610
pol	-8611
рии	-8612
рук	-8613
▁là	-8614
▁чу	-8615
whel	-8616
▁Jan	-8617
▁sect	-8618
▁pelig	-8619
▁stack	-8620
▁compañ	-8621
▁powers	-8622
▁profit	-8623
▁radius	-8624
▁Service	-8625
▁möglich	-8626
▁которая	-8627
▁although	-8628
▁partners	-8629
▁patrones	-8630
▁frequently	-8631
▁connections	-8632
*\	-8633
/3	-8634
ete	-8635
▁45	-8636
aker	-8637
rown	-8638
▁atr	-8639
▁hun	-8640
строй	-8641
▁Agre	-8642
▁Dame	-8643
▁nego	-8644
▁shoes	-8645
▁turns	-8646
▁shapes	-8647
▁других	-8648
▁зависи	-8649
izations	-8650
wareness	-8651
▁cuisine	-8652
▁mencion	-8653
▁survive	-8654
▁trusted	-8655
▁weights	-8656
▁diabetes	-8657
▁distract	-8658
▁nutrients	-8659
▁meditation	-8660
▁expectations	-8661
iro	-8662
roz	-8663
sen	-8664
abol	-8665
тому	-8666
▁hop	-8667
▁нау	-8668
Frame	-8669
uesta	-8670
▁Spec	-8671
▁Estoy	-8672
▁empty	-8673
▁moves	-8674
▁belong	-8675
▁native	-8676
▁sosten	-8677
▁Twitter	-8678
▁brought	-8679
▁movements	-8680
▁spiritual	-8681
▁commitment	-8682
TX	-8683
ดี	-8684
▁)	-8685
fre	-8686
шин	-8687
▁EU	-8688
▁IT	-8689
▁Ро	-8690
find	-8691
ioni	-8692
link	-8693
uary	-8694
дите	-8695
▁Ben	-8696
▁thin	-8697
▁enable	-8698
▁matrix	-8699
▁remote	-8700
▁Machine	-8701
▁articles	-8702
▁outcomes	-8703
▁emissions	-8704
▁translate	-8705
nv	-8706
gor	-8707
iko	-8708
oir	-8709
ste	-8710
бой	-8711
кус	-8712
สาม	-8713
bash	-8714
urer	-8715
▁спе	-8716
culos	-8717
iform	-8718
uster	-8719
▁cosa	-8720
▁enfo	-8721
acidad	-8722
▁Their	-8723
▁adopt	-8724
▁ellas	-8725
▁frase	-8726
▁keine	-8727
▁shift	-8728
▁Electr	-8729
▁camino	-8730
▁iPhone	-8731
▁sartén	-8732
▁wouldn	-8733
ikipedia	-8734
▁América	-8735
▁mindful	-8736
▁territor	-8737
▁watching	-8738
▁stability	-8739
▁introduced	-8740
SL	-8741
Que	-8742
▁Ub	-8743
▁ago	-8744
▁bon	-8745
▁нет	-8746
nExpl	-8747
▁было	-8748
▁хоро	-8749
▁genre	-8750
▁minor	-8751
▁друго	-8752
affeine	-8753
▁Unidos	-8754
▁dreams	-8755
▁escape	-8756
▁appears	-8757
▁editing	-8758
▁visible	-8759
▁drinking	-8760
▁overwhel	-8761
▁classical	-8762
▁committed	-8763
▁población	-8764
▁transition	-8765
My	-8766
ki	-8767
ัก	-8768
App	-8769
eld	-8770
кий	-8771
▁oh	-8772
igua	-8773
ский	-8774
▁fon	-8775
▁gut	-8776
▁pac	-8777
▁vie	-8778
acles	-8779
ested	-8780
ithub	-8781
nEste	-8782
▁Cook	-8783
▁Know	-8784
▁limp	-8785
▁нача	-8786
onacci	-8787
▁India	-8788
▁fuego	-8789
▁olive	-8790
ethical	-8791
▁Africa	-8792
▁entity	-8793
▁inters	-8794
▁último	-8795
▁Escribe	-8796
▁affected	-8797
▁exciting	-8798
▁diversity	-8799
▁filosofía	-8800
▁parameter	-8801
▁referring	-8802
-6	-8803
2:	-8804
We	-8805
фек	-8806
▁AS	-8807
otes	-8808
enden	-8809
▁drug	-8810
▁оста	-8811
▁себя	-8812
ederal	-8813
object	-8814
▁Intro	-8815
▁busca	-8816
▁carne	-8817
▁String	-8818
▁artist	-8819
▁juntos	-8820
▁reader	-8821
▁servers	-8822
▁channels	-8823
▁revolution	-8824
▁educational	-8825
▁efficiently	-8826
▁especialmente	-8827
To	-8828
2.\	-8829
Get	-8830
dad	-8831
▁Mi	-8832
▁Ur	-8833
▁éx	-8834
ongo	-8835
▁тек	-8836
creen	-8837
вести	-8838
▁anti	-8839
▁cerc	-8840
▁gent	-8841
▁obra	-8842
nclass	-8843
▁owner	-8844
▁Guerra	-8845
▁Quiero	-8846
▁Should	-8847
▁grupos	-8848
▁Algunas	-8849
▁vocabul	-8850
▁bacteria	-8851
▁velocity	-8852
▁Australia	-8853
▁interpretation	-8854
PL	-8855
gt	-8856
ี้	-8857
▁แ	-8858
erry	-8859
стве	-8860
▁App	-8861
▁ана	-8862
vable	-8863
горит	-8864
▁Note	-8865
▁arms	-8866
▁echo	-8867
ividad	-8868
▁crack	-8869
▁demás	-8870
▁señal	-8871
▁stuff	-8872
inating	-8873
▁afraid	-8874
▁gráfic	-8875
▁помочь	-8876
▁Install	-8877
▁demostr	-8878
▁finally	-8879
▁fishing	-8880
▁flowers	-8881
▁empresas	-8882
▁sunlight	-8883
▁educación	-8884
▁habilidad	-8885
▁industries	-8886
nIngredients	-8887
-9	-8888
37	-8889
5\	-8890
wa	-8891
เล	-8892
ешь	-8893
рга	-8894
род	-8895
oses	-8896
▁Dav	-8897
▁elev	-8898
append	-8899
entran	-8900
nWhile	-8901
▁claro	-8902
▁mecán	-8903
▁mouse	-8904
▁приме	-8905
▁batter	-8906
▁случае	-8907
▁conflicts	-8908
▁offensive	-8909
▁unethical	-8910
▁creativity	-8911
▁arquitectura	-8912
▁correctamente	-8913
21	-8914
etr	-8915
hab	-8916
дин	-8917
0000	-8918
nint	-8919
▁Lim	-8920
▁wir	-8921
nOnce	-8922
outer	-8923
ículo	-8924
▁Even	-8925
▁Fire	-8926
▁Math	-8927
▁```\	-8928
▁lots	-8929
▁мето	-8930
▁поня	-8931
nEstos	-8932
▁meals	-8933
▁mixed	-8934
▁tarea	-8935
▁позво	-8936
▁divide	-8937
▁siento	-8938
▁tomato	-8939
▁compress	-8940
▁servidor	-8941
▁algoritmos	-8942
▁experiencing	-8943
▁corresponding	-8944
27	-8945
sa	-8946
了解	-8947
іль	-8948
ารถ	-8949
▁За	-8950
пиши	-8951
▁Dem	-8952
▁Mens	-8953
▁club	-8954
▁tick	-8955
▁виде	-8956
yright	-8957
▁dieta	-8958
▁жизни	-8959
▁помощ	-8960
Element	-8961
▁desire	-8962
▁histór	-8963
▁работа	-8964
▁density	-8965
▁flavors	-8966
▁phrases	-8967
▁windows	-8968
▁criteria	-8969
▁studying	-8970
▁positions	-8971
▁encuentran	-8972
▁meaningful	-8973
nInstructions	-8974
DP	-8975
ู้	-8976
回答	-8977
`.\	-8978
gue	-8979
юще	-8980
quer	-8981
веде	-8982
▁Fol	-8983
ispiel	-8984
▁hyper	-8985
▁salad	-8986
▁Always	-8987
▁hombre	-8988
▁compass	-8989
▁peuvent	-8990
▁breaking	-8991
▁elemento	-8992
▁register	-8993
▁некоторы	-8994
▁optimization	-8995
▁significance	-8996
мі	-8997
ёт	-8998
例如	-8999
sec	-9000
้อง	-9001
View	-9002
\":\	-9003
geno	-9004
lean	-9005
▁Lib	-9006
▁Mil	-9007
▁dro	-9008
▁tag	-9009
▁tow	-9010
▁fing	-9011
▁hous	-9012
▁pure	-9013
สามารถ	-9014
▁Graph	-9015
▁therm	-9016
▁virus	-9017
▁Stable	-9018
▁dinner	-9019
▁facing	-9020
▁occurs	-9021
▁sorted	-9022
▁empathy	-9023
▁extreme	-9024
Assistant	-9025
▁acciones	-9026
▁adecuado	-9027
▁happened	-9028
▁película	-9029
▁stronger	-9030
▁verduras	-9031
▁partículas	-9032
▁availability	-9033
TE	-9034
เพ	-9035
agg	-9036
ähr	-9037
гла	-9038
True	-9039
itis	-9040
sche	-9041
▁Bas	-9042
▁abr	-9043
▁swe	-9044
aints	-9045
▁hack	-9046
▁поли	-9047
▁Luego	-9048
▁casos	-9049
▁links	-9050
▁Aunque	-9051
▁garden	-9052
▁versat	-9053
▁компью	-9054
▁agregar	-9055
▁consumo	-9056
▁adecuada	-9057
▁diseases	-9058
▁intended	-9059
▁speaking	-9060
▁ultimately	-9061
34	-9062
NN	-9063
วิ	-9064
方法	-9065
asa	-9066
rea	-9067
лен	-9068
▁Ma	-9069
▁há	-9070
Line	-9071
lets	-9072
osta	-9073
наль	-9074
ская	-9075
▁(18	-9076
▁gun	-9077
▁sug	-9078
haust	-9079
table	-9080
▁Node	-9081
client	-9082
ствует	-9083
▁dudes	-9084
▁initi	-9085
▁mente	-9086
▁shell	-9087
uggling	-9088
▁contem	-9089
▁harder	-9090
▁turned	-9091
▁способ	-9092
▁fashion	-9093
▁kitchen	-9094
nfunction	-9095
▁comments	-9096
▁dificult	-9097
▁posibles	-9098
▁shopping	-9099
▁standing	-9100
▁awareness	-9101
▁expresión	-9102
%\	-9103
IS	-9104
uda	-9105
▁ja	-9106
▁Во	-9107
this	-9108
ythm	-9109
вает	-9110
▁bol	-9111
▁bub	-9112
▁gob	-9113
▁від	-9114
ivery	-9115
rooms	-9116
▁Post	-9117
▁grab	-9118
▁hydr	-9119
▁mort	-9120
▁perd	-9121
▁tact	-9122
▁tout	-9123
▁embed	-9124
▁gonna	-9125
▁inner	-9126
▁broken	-9127
▁charge	-9128
▁layout	-9129
▁receta	-9130
▁street	-9131
▁African	-9132
▁llamada	-9133
▁ventajas	-9134
▁otherwise	-9135
▁universal	-9136
▁generating	-9137
▁specialized	-9138
▁enfermedades	-9139
88	-9140
An	-9141
DO	-9142
яс	-9143
หล	-9144
-10	-9145
ELE	-9146
▁và	-9147
▁ти	-9148
plex	-9149
▁Mor	-9150
scale	-9151
работ	-9152
▁beat	-9153
▁disp	-9154
▁marr	-9155
▁гово	-9156
▁State	-9157
▁dates	-9158
▁infer	-9159
▁secre	-9160
▁sueño	-9161
▁exclus	-9162
response	-9163
▁aplicar	-9164
▁skillet	-9165
▁seleccion	-9166
▁accomplish	-9167
▁plataforma	-9168
▁destination	-9169
▁situaciones	-9170
цы	-9171
Set	-9172
ман	-9173
ник	-9174
});\	-9175
▁AWS	-9176
▁Che	-9177
▁```	-9178
cules	-9179
▁acqu	-9180
▁bond	-9181
▁isol	-9182
▁unex	-9183
asting	-9184
▁Const	-9185
▁chess	-9186
▁Museum	-9187
▁blocks	-9188
▁combat	-9189
▁golden	-9190
▁nuevos	-9191
▁Estados	-9192
▁persist	-9193
▁vibrant	-9194
▁efectiva	-9195
▁transmit	-9196
ไร	-9197
▁q	-9198
raz	-9199
udd	-9200
ugu	-9201
дом	-9202
▁Ty	-9203
▁ки	-9204
igue	-9205
onut	-9206
wood	-9207
ieres	-9208
▁Date	-9209
▁Much	-9210
▁euro	-9211
celona	-9212
ulated	-9213
▁conex	-9214
▁gratu	-9215
▁letra	-9216
▁meets	-9217
▁éxito	-9218
▁такие	-9219
ografía	-9220
▁declar	-9221
▁propia	-9222
▁robust	-9223
▁consent	-9224
▁imagine	-9225
▁premise	-9226
▁registr	-9227
▁trouble	-9228
▁applying	-9229
▁aquellos	-9230
▁focusing	-9231
▁permiten	-9232
▁recently	-9233
อก	-9234
ông	-9235
acht	-9236
úcar	-9237
▁jog	-9238
uming	-9239
ético	-9240
▁Asia	-9241
▁Mond	-9242
ставля	-9243
▁Class	-9244
▁beach	-9245
▁gente	-9246
▁razón	-9247
ulación	-9248
▁comien	-9249
▁algebra	-9250
▁impacts	-9251
▁neurons	-9252
▁proteger	-9253
▁certainly	-9254
▁complejos	-9255
▁predictions	-9256
.)\	-9257
ycl	-9258
▁ár	-9259
unci	-9260
▁CSV	-9261
▁Для	-9262
isión	-9263
lands	-9264
áfica	-9265
▁Hand	-9266
▁Hist	-9267
▁More	-9268
▁crea	-9269
▁поль	-9270
nFirst	-9271
tereot	-9272
▁clara	-9273
▁atract	-9274
▁Bitcoin	-9275
▁outcome	-9276
▁trading	-9277
▁conocida	-9278
▁integers	-9279
▁stunning	-9280
▁therefore	-9281
▁performing	-9282
▁validation	-9283
▁restaurants	-9284
▁collaboration	-9285
66	-9286
mb	-9287
dos	-9288
oke	-9289
tos	-9290
ync	-9291
▁Но	-9292
▁Ber	-9293
▁\"[	-9294
▁hob	-9295
▁sua	-9296
stand	-9297
viron	-9298
▁Mars	-9299
▁\"\"	-9300
elsius	-9301
ighter	-9302
▁brind	-9303
▁fuera	-9304
▁Answer	-9305
▁forget	-9306
▁género	-9307
nFinally	-9308
▁fitness	-9309
▁resolve	-9310
▁threats	-9311
▁Diffusion	-9312
▁naturales	-9313
▁determinar	-9314
▁superficie	-9315
FF	-9316
ます	-9317
他们	-9318
You	-9319
atz	-9320
lam	-9321
órm	-9322
цен	-9323
▁21	-9324
▁Mr	-9325
▁||	-9326
▁як	-9327
duce	-9328
ecer	-9329
ract	-9330
unct	-9331
ющие	-9332
▁Bel	-9333
▁Pos	-9334
▁USB	-9335
▁raw	-9336
▁кра	-9337
ierte	-9338
retch	-9339
▁Kore	-9340
▁enth	-9341
▁fans	-9342
▁tras	-9343
▁wave	-9344
▁Analy	-9345
▁prove	-9346
▁прави	-9347
▁счита	-9348
password	-9349
▁pequeño	-9350
▁segundo	-9351
▁Transform	-9352
▁happiness	-9353
▁successfully	-9354
arc	-9355
iat	-9356
este	-9357
long	-9358
▁Arch	-9359
▁Wenn	-9360
fortun	-9361
▁belle	-9362
▁digit	-9363
▁lists	-9364
▁plane	-9365
▁recip	-9366
▁spent	-9367
iamente	-9368
рования	-9369
▁George	-9370
▁Invest	-9371
▁closer	-9372
▁perman	-9373
▁strict	-9374
▁abierto	-9375
▁confirm	-9376
▁massive	-9377
▁picture	-9378
▁aircraft	-9379
▁analizar	-9380
▁discrimin	-9381
▁introduce	-9382
▁compatible	-9383
▁electrical	-9384
▁interaction	-9385
8\	-9386
ba	-9387
ucr	-9388
лия	-9389
acia	-9390
nUna	-9391
sort	-9392
▁Its	-9393
▁Off	-9394
aping	-9395
iture	-9396
▁earn	-9397
▁sono	-9398
▁zona	-9399
alysis	-9400
▁Impro	-9401
▁Model	-9402
▁disap	-9403
▁finds	-9404
▁funny	-9405
▁coding	-9406
▁ingres	-9407
▁laptop	-9408
▁terror	-9409
▁periods	-9410
▁texture	-9411
▁действи	-9412
▁teaching	-9413
▁tortilla	-9414
javascript	-9415
▁realistic	-9416
▁resistencia	-9417
2-	-9418
дра	-9419
спо	-9420
▁pd	-9421
▁ак	-9422
▁пе	-9423
自己的	-9424
anda	-9425
rote	-9426
utas	-9427
▁bag	-9428
▁jum	-9429
▁rod	-9430
emplo	-9431
itute	-9432
шения	-9433
▁Eins	-9434
▁Gold	-9435
▁True	-9436
▁añad	-9437
▁hero	-9438
ancias	-9439
▁Organ	-9440
▁loyal	-9441
▁разви	-9442
▁breaks	-9443
▁puedas	-9444
▁afectar	-9445
▁choosing	-9446
▁interval	-9447
▁religion	-9448
▁preference	-9449
▁incorporate	-9450
▁classification	-9451
><	-9452
OP	-9453
ky	-9454
ró	-9455
ета	-9456
▁35	-9457
▁VR	-9458
▁би	-9459
▁Dan	-9460
▁Gen	-9461
▁rép	-9462
▁tap	-9463
▁Про	-9464
uerzo	-9465
ления	-9466
▁Work	-9467
▁aren	-9468
▁dess	-9469
▁térm	-9470
▁wire	-9471
angers	-9472
icidad	-9473
▁calls	-9474
▁coche	-9475
▁такое	-9476
▁Tensor	-9477
▁sister	-9478
▁útiles	-9479
▁citizens	-9480
▁minimize	-9481
▁referred	-9482
▁template	-9483
▁unlikely	-9484
▁entertain	-9485
▁foundation	-9486
▁frameworks	-9487
ii	-9488
тя	-9489
жда	-9490
ших	-9491
▁0;	-9492
▁om	-9493
aire	-9494
chem	-9495
esto	-9496
igma	-9497
▁Dur	-9498
▁rit	-9499
while	-9500
ítulo	-9501
▁2020	-9502
▁Serv	-9503
▁gave	-9504
▁gone	-9505
points	-9506
▁revol	-9507
▁teléf	-9508
▁thous	-9509
▁centro	-9510
▁insert	-9511
▁intens	-9512
▁propio	-9513
▁closely	-9514
▁fuentes	-9515
▁reaction	-9516
▁President	-9517
▁dimensions	-9518
▁específico	-9519
▁statistics	-9520
▁implemented	-9521
▁researchers	-9522
▁sustainability	-9523
CP	-9524
rc	-9525
}}	-9526
úa	-9527
iki	-9528
run	-9529
ден	-9530
cado	-9531
iant	-9532
umes	-9533
unte	-9534
ност	-9535
▁hes	-9536
▁ont	-9537
Event	-9538
close	-9539
▁hate	-9540
ipping	-9541
▁comer	-9542
▁hydro	-9543
▁setup	-9544
▁sizes	-9545
▁father	-9546
▁summer	-9547
▁clarify	-9548
▁comprar	-9549
▁cutting	-9550
▁decimal	-9551
▁fiction	-9552
▁parallel	-9553
▁reaching	-9554
▁selected	-9555
▁chemicals	-9556
▁disfrutar	-9557
▁películas	-9558
▁eficiencia	-9559
▁struggling	-9560
▁interesante	-9561
▁introduction	-9562
ษา	-9563
чен	-9564
чки	-9565
▁Gl	-9566
▁vs	-9567
tics	-9568
тите	-9569
▁Jos	-9570
▁Sil	-9571
▁fro	-9572
▁lit	-9573
▁обе	-9574
ieves	-9575
olute	-9576
start	-9577
train	-9578
▁Aseg	-9579
▁Hier	-9580
▁Vers	-9581
▁ends	-9582
▁máqu	-9583
▁padd	-9584
▁soap	-9585
▁suit	-9586
▁Energ	-9587
▁faced	-9588
▁occas	-9589
▁único	-9590
▁Remove	-9591
▁bodies	-9592
▁border	-9593
▁forest	-9594
▁fueron	-9595
▁tengas	-9596
▁brother	-9597
▁execute	-9598
▁inicial	-9599
▁turning	-9600
▁Security	-9601
▁printing	-9602
▁replaced	-9603
▁buildings	-9604
▁reasoning	-9605
▁popularity	-9606
▁componentes	-9607
+1	-9608
CH	-9609
Le	-9610
าง	-9611
-12	-9612
ami	-9613
ück	-9614
ляр	-9615
▁её	-9616
▁эк	-9617
alls	-9618
eted	-9619
guir	-9620
рить	-9621
▁cám	-9622
▁hog	-9623
▁sad	-9624
▁sop	-9625
▁wür	-9626
▁где	-9627
estre	-9628
icher	-9629
nSome	-9630
▁Prom	-9631
▁Stay	-9632
▁surf	-9633
▁torn	-9634
▁basis	-9635
▁inclu	-9636
▁lemon	-9637
▁queso	-9638
▁связа	-9639
▁Ensure	-9640
▁acción	-9641
▁caught	-9642
▁estaba	-9643
▁gaming	-9644
▁nearby	-9645
▁robots	-9646
ashington	-9647
▁checking	-9648
▁preparar	-9649
▁removing	-9650
▁Barcelona	-9651
▁Encourage	-9652
▁percentage	-9653
FT	-9654
хи	-9655
qué	-9656
ème	-9657
últ	-9658
рак	-9659
1,0\	-9660
amen	-9661
isco	-9662
жалу	-9663
▁Did	-9664
▁ble	-9665
actor	-9666
orders	-9667
▁March	-9668
▁asoci	-9669
▁carro	-9670
▁numpy	-9671
▁между	-9672
▁liquid	-9673
▁disrupt	-9674
▁medidas	-9675
▁consiste	-9676
▁estudiar	-9677
▁sencilla	-9678
▁simulation	-9679
CE	-9680
На	-9681
ск	-9682
▁ó	-9683
ENT	-9684
eph	-9685
ßen	-9686
▁вз	-9687
,,,,	-9688
berg	-9689
laro	-9690
▁Pay	-9691
▁обо	-9692
event	-9693
iller	-9694
ivate	-9695
▁mater	-9696
▁suger	-9697
▁azúcar	-9698
▁closed	-9699
▁divert	-9700
▁propos	-9701
▁stands	-9702
▁focuses	-9703
▁formato	-9704
▁typical	-9705
▁weapons	-9706
▁complejo	-9707
▁concepto	-9708
▁opposite	-9709
▁survival	-9710
▁необходимо	-9711
▁identificar	-9712
44	-9713
Hub	-9714
cip	-9715
ria	-9716
▁7.	-9717
▁що	-9718
обще	-9719
▁Pan	-9720
▁unc	-9721
chaft	-9722
error	-9723
organ	-9724
venir	-9725
▁Mult	-9726
▁dels	-9727
▁Sorry	-9728
▁dejar	-9729
▁feels	-9730
▁интер	-9731
▁assets	-9732
▁crisis	-9733
▁explos	-9734
▁reglas	-9735
▁clothes	-9736
▁solving	-9737
▁Software	-9738
▁Development	-9739
▁competitive	-9740
▁distributed	-9741
gins	-9742
йста	-9743
▁0.0	-9744
▁10,	-9745
▁PDF	-9746
▁ges	-9747
▁hem	-9748
▁pig	-9749
▁raí	-9750
▁six	-9751
▁são	-9752
▁wur	-9753
▁сов	-9754
vious	-9755
▁Juan	-9756
▁crít	-9757
▁fort	-9758
▁suma	-9759
▁tech	-9760
uestos	-9761
▁Title	-9762
▁temps	-9763
▁выпол	-9764
berries	-9765
▁cuatro	-9766
▁formed	-9767
▁inches	-9768
▁license	-9769
▁perhaps	-9770
▁putting	-9771
▁scratch	-9772
elligence	-9773
▁caffeine	-9774
▁electron	-9775
ij	-9776
3.\	-9777
arn	-9778
nHe	-9779
nex	-9780
смо	-9781
тно	-9782
apes	-9783
esso	-9784
rich	-9785
▁Joh	-9786
▁NOT	-9787
▁Out	-9788
▁vin	-9789
▁ease	-9790
▁múlt	-9791
▁sang	-9792
▁soul	-9793
▁antib	-9794
▁leyes	-9795
▁worry	-9796
▁Europa	-9797
▁además	-9798
▁región	-9799
▁metabol	-9800
▁mundial	-9801
▁pronoun	-9802
▁aspectos	-9803
▁daughter	-9804
▁respecto	-9805
▁fictional	-9806
▁representa	-9807
▁thoroughly	-9808
▁intelligent	-9809
▁effectiveness	-9810
])	-9811
wo	-9812
้ว	-9813
▁Ф	-9814
██	-9815
处理	-9816
Add	-9817
For	-9818
New	-9819
]\"	-9820
asp	-9821
ika	-9822
▁nh	-9823
Date	-9824
abel	-9825
enda	-9826
oned	-9827
wick	-9828
▁Bro	-9829
▁fen	-9830
▁Head	-9831
▁mold	-9832
▁shor	-9833
ческих	-9834
▁Progr	-9835
▁pasar	-9836
▁shall	-9837
ometers	-9838
▁Empire	-9839
▁Potter	-9840
▁extend	-9841
▁myster	-9842
▁upload	-9843
▁consecu	-9844
▁evolved	-9845
▁figures	-9846
▁revenue	-9847
▁signals	-9848
▁cuántica	-9849
▁football	-9850
▁greatest	-9851
▁supplies	-9852
▁versions	-9853
▁Christian	-9854
▁corriente	-9855
▁Revolution	-9856
▁difficulty	-9857
▁productivity	-9858
Pl	-9859
UE	-9860
系统	-9861
(0,	-9862
alo	-9863
nTr	-9864
zer	-9865
äch	-9866
▁tk	-9867
:**\	-9868
wich	-9869
▁195	-9870
▁dia	-9871
▁fle	-9872
▁них	-9873
▁она	-9874
Claro	-9875
Write	-9876
ierta	-9877
ports	-9878
▁Cada	-9879
▁Rome	-9880
▁apar	-9881
▁desen	-9882
▁orbit	-9883
▁piano	-9884
▁plate	-9885
▁таких	-9886
▁driver	-9887
▁muerte	-9888
▁parece	-9889
▁serves	-9890
▁Однако	-9891
ivamente	-9892
жалуйста	-9893
▁fantasy	-9894
▁parties	-9895
▁showing	-9896
▁ecuación	-9897
▁inspired	-9898
▁actividad	-9899
▁exploration	-9900
28	-9901
Se	-9902
ций	-9903
▁(\	-9904
bled	-9905
isto	-9906
▁cré	-9907
▁всё	-9908
ifies	-9909
ocate	-9910
▁Pued	-9911
▁fran	-9912
▁fórm	-9913
▁wash	-9914
▁Cloud	-9915
▁batch	-9916
▁toler	-9917
▁waves	-9918
▁attend	-9919
▁cliente	-9920
▁cryptoc	-9921
▁drawing	-9922
▁exemple	-9923
▁exhaust	-9924
▁foreign	-9925
▁mensaje	-9926
▁detalles	-9927
▁director	-9928
▁modified	-9929
▁triangle	-9930
▁recomiendo	-9931
▁relaciones	-9932
▁traditions	-9933
▁instrucciones	-9934
DR	-9935
nl	-9936
aks	-9937
uste	-9938
what	-9939
мент	-9940
▁Rom	-9941
▁Run	-9942
▁dej	-9943
▁hub	-9944
etime	-9945
▁2000	-9946
▁quar	-9947
▁rare	-9948
▁trop	-9949
▁abord	-9950
▁coher	-9951
▁lingu	-9952
▁portr	-9953
▁smell	-9954
▁Turing	-9955
▁Ubuntu	-9956
▁buying	-9957
▁понима	-9958
▁fulfill	-9959
▁holiday	-9960
▁families	-9961
▁packages	-9962
▁например	-9963
▁concerned	-9964
▁preguntar	-9965
▁medication	-9966
▁practicing	-9967
▁crecimiento	-9968
▁participate	-9969
▁restrictions	-9970
$\	-9971
39	-9972
By	-9973
cm	-9974
än	-9975
1.\	-9976
OST	-9977
ubl	-9978
▁26	-9979
▁AD	-9980
▁ví	-9981
onge	-9982
▁300	-9983
▁Bol	-9984
▁Jes	-9985
▁Vol	-9986
▁dra	-9987
▁irr	-9988
ombia	-9989
▁Back	-9990
▁vine	-9991
ección	-9992
ionado	-9993
▁Space	-9994
▁demas	-9995
▁haven	-9996
▁sharp	-9997
▁adults	-9998
▁cardio	-9999
▁fuerte	-10000
▁пробле	-10001
username	-10002
▁organic	-10003
▁strange	-10004
▁archivos	-10005
▁spending	-10006
▁centuries	-10007
▁complement	-10008
($	-10009
++)	-10010
dev	-10011
äng	-10012
aden	-10013
edge	-10014
icon	-10015
pare	-10016
xico	-10017
▁Bay	-10018
▁Eas	-10019
▁pil	-10020
▁rub	-10021
▁sof	-10022
▁són	-10023
▁wet	-10024
ahren	-10025
speed	-10026
▁Like	-10027
▁Wars	-10028
▁migr	-10029
▁Human	-10030
▁Light	-10031
▁breed	-10032
▁carbo	-10033
▁meses	-10034
▁oblig	-10035
▁quiet	-10036
▁split	-10037
▁tells	-10038
▁theme	-10039
▁лучше	-10040
▁suelen	-10041
▁talent	-10042
▁Because	-10043
▁categor	-10044
▁designs	-10045
▁engines	-10046
▁logical	-10047
▁magical	-10048
▁времени	-10049
▁programm	-10050
▁investing	-10051
▁streaming	-10052
▁tablespoon	-10053
好的	-10054
500	-10055
zos	-10056
гре	-10057
▁Os	-10058
▁PM	-10059
oder	-10060
omin	-10061
opol	-10062
лось	-10063
льта	-10064
ффек	-10065
▁Hey	-10066
▁dic	-10067
asser	-10068
illos	-10069
porte	-10070
▁Econ	-10071
▁Sara	-10072
▁слож	-10073
atever	-10074
▁COVID	-10075
▁Visit	-10076
▁apare	-10077
▁photo	-10078
▁ratio	-10079
▁remind	-10080
▁sonido	-10081
▁другие	-10082
▁Console	-10083
▁curious	-10084
▁records	-10085
▁consists	-10086
▁contiene	-10087
▁biblioteca	-10088
▁estructuras	-10089
49	-10090
db	-10091
zu	-10092
中的	-10093
вно	-10094
▁Ah	-10095
!\"\	-10096
hmen	-10097
iosa	-10098
▁Sen	-10099
click	-10100
fully	-10101
rasil	-10102
держи	-10103
▁East	-10104
▁busc	-10105
▁forg	-10106
▁poly	-10107
ческие	-10108
▁Click	-10109
clusion	-10110
ducción	-10111
ulating	-10112
▁plugin	-10113
▁tierra	-10114
cripción	-10115
ualmente	-10116
▁clearly	-10117
▁diction	-10118
▁eventos	-10119
▁branches	-10120
▁pequeños	-10121
▁struggle	-10122
▁describes	-10123
▁organized	-10124
▁scenarios	-10125
▁leadership	-10126
EX	-10127
ใช้	-10128
▁6,	-10129
▁ци	-10130
паси	-10131
теля	-10132
▁цен	-10133
grade	-10134
opher	-10135
weise	-10136
▁2019	-10137
▁rely	-10138
▁пока	-10139
▁Enter	-10140
▁Every	-10141
▁Incre	-10142
▁cielo	-10143
▁flujo	-10144
▁llama	-10145
▁veter	-10146
▁wings	-10147
present	-10148
▁Integr	-10149
▁acerca	-10150
▁checks	-10151
▁utilis	-10152
▁grammar	-10153
▁interés	-10154
▁possess	-10155
▁reached	-10156
▁staying	-10157
▁accepted	-10158
▁delivery	-10159
▁electrom	-10160
▁kindness	-10161
▁mistakes	-10162
▁phenomen	-10163
▁copyright	-10164
▁económico	-10165
▁ingeniería	-10166
▁conversations	-10167
(1	-10168
79	-10169
»,	-10170
能够	-10171
nDo	-10172
nIm	-10173
rez	-10174
äre	-10175
▁Ep	-10176
▁IS	-10177
▁Pi	-10178
erme	-10179
left	-10180
чему	-10181
State	-10182
akers	-10183
▁Qual	-10184
▁Tele	-10185
▁elim	-10186
▁pier	-10187
▁ring	-10188
▁warr	-10189
▁acept	-10190
▁court	-10191
▁della	-10192
▁films	-10193
▁kinds	-10194
▁stone	-10195
▁upper	-10196
▁urban	-10197
▁frustr	-10198
▁hermos	-10199
▁contrad	-10200
▁neutral	-10201
nTherefore	-10202
urthermore	-10203
▁motivated	-10204
▁continuous	-10205
▁recomendable	-10206
36	-10207
Bl	-10208
sl	-10209
ึง	-10210
izo	-10211
руд	-10212
▁36	-10213
such	-10214
личи	-10215
▁Top	-10216
▁Ukr	-10217
▁pró	-10218
▁фак	-10219
▁Educ	-10220
▁bear	-10221
▁gram	-10222
▁horm	-10223
▁secu	-10224
▁Music	-10225
▁chron	-10226
▁placed	-10227
gression	-10228
ographic	-10229
▁Process	-10230
▁augment	-10231
▁optimal	-10232
▁segunda	-10233
▁selling	-10234
▁произво	-10235
▁Describe	-10236
▁desafíos	-10237
▁politics	-10238
▁authentic	-10239
▁breathing	-10240
▁mechanisms	-10241
▁combinación	-10242
▁flexibility	-10243
▁characterized	-10244
Fi	-10245
TH	-10246
gy	-10247
tu	-10248
方面	-10249
jud	-10250
pha	-10251
вый	-10252
ktop	-10253
nCan	-10254
▁Ale	-10255
iores	-10256
quare	-10257
valid	-10258
ского	-10259
▁Link	-10260
▁Luna	-10261
▁carb	-10262
▁dado	-10263
▁dorm	-10264
▁tens	-10265
▁blank	-10266
▁clock	-10267
ionante	-10268
▁altura	-10269
function	-10270
▁acordes	-10271
▁minimal	-10272
▁muscles	-10273
▁trigger	-10274
▁absolute	-10275
▁caliente	-10276
▁creature	-10277
▁considera	-10278
▁ejercicio	-10279
▁frecuencia	-10280
▁literature	-10281
▁estudiantes	-10282
▁influential	-10283
ริ	-10284
重要	-10285
ína	-10286
ним	-10287
▁ah	-10288
▁Ва	-10289
aled	-10290
pany	-10291
uler	-10292
води	-10293
▁dou	-10294
ELECT	-10295
anted	-10296
ental	-10297
uelve	-10298
uerdo	-10299
▁Plat	-10300
▁flag	-10301
▁none	-10302
▁seed	-10303
▁года	-10304
▁darme	-10305
▁época	-10306
▁claims	-10307
▁riesgo	-10308
▁última	-10309
▁sitting	-10310
▁lighting	-10311
▁monitoring	-10312
▁principios	-10313
▁suficiente	-10314
▁preferencias	-10315
29	-10316
CC	-10317
Or	-10318
PG	-10319
”.	-10320
建议	-10321
ket	-10322
urd	-10323
нет	-10324
▁ло	-10325
▁1:\	-10326
▁Haw	-10327
▁	-10328
e	-10329
a	-10330
n	-10331
t	-10332
o	-10333
i	-10334
s	-10335
r	-10336
l	-10337
d	-10338
c	-10339
u	-10340
h	-10341
m	-10342
p	-10343
g	-10344
f	-10345
\	-10346
y	-10347
.	-10348
b	-10349
,	-10350
w	-10351
v	-10352
"	-10353
k	-10354
:	-10355
о	-10356
x	-10357
е	-10358
и	-10359
I	-10360
а	-10361
-	-10362
q	-10363
T	-10364
т	-10365
н	-10366
A	-10367
S	-10368
'	-10369
с	-10370
z	-10371
C	-10372
1	-10373
р	-10374
j	-10375
E	-10376
{	-10377
}	-10378
P	-10379
в	-10380
0	-10381
)	-10382
(	-10383
л	-10384
2	-10385
?	-10386
ó	-10387
к	-10388
м	-10389
M	-10390
D	-10391
L	-10392
H	-10393
д	-10394
п	-10395
í	-10396
B	-10397
W	-10398
R	-10399
у	-10400
*	-10401
`	-10402
é	-10403
á	-10404
N	-10405
3	-10406
O	-10407
F	-10408
_	-10409
я	-10410
ы	-10411
/	-10412
ь	-10413
G	-10414
5	-10415
=	-10416
4	-10417
з	-10418
б	-10419
U	-10420
ч	-10421
г	-10422
й	-10423
Y	-10424
9	-10425
6	-10426
7	-10427
8	-10428
!	-10429
ж	-10430
V	-10431
;	-10432
J	-10433
х	-10434
的	-10435
]	-10436
[	-10437
ю	-10438
K	-10439
>	-10440
ú	-10441
|	-10442
<	-10443
+	-10444
ñ	-10445
า	-10446
ш	-10447
’	-10448
Q	-10449
#	-10450
ц	-10451
。	-10452
¿	-10453
น	-10454
$	-10455
і	-10456
щ	-10457
ü	-10458
อ	-10459
่	-10460
ร	-10461
ф	-10462
X	-10463
э	-10464
ก	-10465
à	-10466
ม	-10467
้	-10468
เ	-10469
ä	-10470
ง	-10471
%	-10472
一	-10473
ั	-10474
是	-10475
和	-10476
Z	-10477
ว	-10478
“	-10479
è	-10480
ี	-10481
、	-10482
В	-10483
”	-10484
ö	-10485
ย	-10486
П	-10487
以	-10488
^	-10489
ด	-10490
ç	-10491
ล	-10492
可	-10493
有	-10494
我	-10495
ค	-10496
ท	-10497
ห	-10498
ã	-10499
ё	-10500
С	-10501
К	-10502
ê	-10503
ไ	-10504
Н	-10505
你	-10506
人	-10507
ะ	-10508
在	-10509
能	-10510
ต	-10511
ส	-10512
ิ	-10513
用	-10514
บ	-10515
&	-10516
О	-10517
个	-10518
不	-10519
จ	-10520
ป	-10521
¡	-10522
中	-10523
要	-10524
แ	-10525
—	-10526
ใ	-10527
ข	-10528
Д	-10529
这	-10530
ื	-10531
了	-10532
•	-10533
为	-10534
А	-10535
如	-10536
М	-10537
Т	-10538
ํ	-10539
ุ	-10540
И	-10541
方	-10542
»	-10543
«	-10544
ß	-10545
法	-10546
พ	-10547
Р	-10548
ช	-10549
生	-10550
ا	-10551
些	-10552
对	-10553
时	-10554
大	-10555
°	-10556
来	-10557
作	-10558
成	-10559
下	-10560
于	-10561
行	-10562
理	-10563
自	-10564
或	-10565
会	-10566
็	-10567
学	-10568
Е	-10569
ู	-10570
数	-10571
使	-10572
好	-10573
等	-10574
Э	-10575
们	-10576
需	-10577
ò	-10578
到	-10579
分	-10580
多	-10581
ل	-10582
他	-10583
同	-10584
程	-10585
Я	-10586
上	-10587
国	-10588
文	-10589
更	-10590
@	-10591
~	-10592
–	-10593
您	-10594
解	-10595
提	-10596
Ч	-10597
地	-10598
ł	-10599
发	-10600
出	-10601
の	-10602
З	-10603
么	-10604
面	-10605
问	-10606
工	-10607
ถ	-10608
果	-10609
ณ	-10610
đ	-10611
语	-10612
Б	-10613
ę	-10614
它	-10615
Г	-10616
进	-10617
开	-10618
定	-10619
过	-10620
力	-10621
助	-10622
言	-10623
其	-10624
є	-10625
ô	-10626
者	-10627
์	-10628
种	-10629
す	-10630
性	-10631
õ	-10632
い	-10633
本	-10634
で	-10635
因	-10636
题	-10637
而	-10638
度	-10639
也	-10640
模	-10641
ъ	-10642
并	-10643
У	-10644
型	-10645
现	-10646
ї	-10647
通	-10648
ึ	-10649
意	-10650
高	-10651
情	-10652
โ	-10653
据	-10654
ي	-10655
し	-10656
产	-10657
然	-10658
体	-10659
は	-10660
动	-10661
之	-10662
化	-10663
机	-10664
间	-10665
什	-10666
关	-10667
建	-10668
ż	-10669
代	-10670
应	-10671
量	-10672
ư	-10673
天	-10674
物	-10675
想	-10676
系	-10677
ą	-10678
实	-10679
表	-10680
务	-10681
最	-10682
都	-10683
加	-10684
帮	-10685
â	-10686
感	-10687
合	-10688
后	-10689
ผ	-10690
所	-10691
与	-10692
常	-10693
制	-10694
目	-10695
新	-10696
ま	-10697
很	-10698
·	-10699
に	-10700
习	-10701
信	-10702
何	-10703
回	-10704
年	-10705
技	-10706
主	-10707
相	-10708
请	-10709
重	-10710
业	-10711
た	-10712
事	-10713
得	-10714
م	-10715
源	-10716
ı	-10717
Л	-10718
な	-10719
子	-10720
ษ	-10721
保	-10722
前	-10723
る	-10724
家	-10725
计	-10726
と	-10727
但	-10728
が	-10729
式	-10730
经	-10731
て	-10732
己	-10733
说	-10734
を	-10735
将	-10736
任	-10737
点	-10738
ت	-10739
具	-10740
还	-10741
类	-10742
当	-10743
明	-10744
比	-10745
息	-10746
ن	-10747
例	-10748
全	-10749
ภ	-10750
か	-10751
就	-10752
展	-10753
知	-10754
ś	-10755
吗	-10756
基	-10757
社	-10758
ć	-10759
و	-10760
É	-10761
供	-10762
持	-10763
公	-10764
算	-10765
《	-10766
》	-10767
件	-10768
入	-10769
心	-10770
此	-10771
美	-10772
特	-10773
⠀	-10774
取	-10775
外	-10776
小	-10777
智	-10778
日	-10779
求	-10780
ฉ	-10781
无	-10782
交	-10783
ù	-10784
答	-10785
术	-10786
Х	-10787
道	-10788
看	-10789
█	-10790
⣿	-10791
ạ	-10792
位	-10793
器	-10794
被	-10795
设	-10796
共	-10797
统	-10798
议	-10799
及	-10800
活	-10801
水	-10802
安	-10803
ر	-10804
存	-10805
确	-10806
部	-10807
内	-10808
写	-10809
序	-10810
影	-10811
向	-10812
那	-10813
没	-10814
结	-10815
ế	-10816
做	-10817
平	-10818
编	-10819
让	-10820
注	-10821
网	-10822
手	-10823
由	-10824
该	-10825
Ф	-10826
思	-10827
电	-10828
ب	-10829
处	-10830
ศ	-10831
り	-10832
示	-10833
创	-10834
服	-10835
░	-10836
あ	-10837
名	-10838
样	-10839
利	-10840
Ü	-10841
从	-10842
ع	-10843
义	-10844
接	-10845
项	-10846
话	-10847
ซ	-10848
效	-10849
う	-10850
起	-10851
深	-10852
包	-10853
列	-10854
受	-10855
给	-10856
字	-10857
指	-10858
個	-10859
品	-10860
准	-10861
够	-10862
流	-10863
ả	-10864
参	-10865
ệ	-10866
界	-10867
先	-10868
推	-10869
气	-10870
ì	-10871
码	-10872
资	-10873
非	-10874
世	-10875
考	-10876
别	-10877
神	-10878
空	-10879
こ	-10880
里	-10881
原	-10882
强	-10883
论	-10884
ك	-10885
导	-10886
律	-10887
期	-10888
着	-10889
试	-10890
车	-10891
科	-10892
完	-10893
望	-10894
识	-10895
根	-10896
正	-10897
质	-10898
ố	-10899
区	-10900
色	-10901
€	-10902
¶	-10903
去	-10904
研	-10905
各	-10906
支	-10907
Á	-10908
认	-10909
ๆ	-10910
则	-10911
ể	-10912
反	-10913
ธ	-10914
れ	-10915
决	-10916
首	-10917
况	-10918
象	-10919
场	-10920
改	-10921
规	-10922
只	-10923
西	-10924
次	-10925
长	-10926
ญ	-10927
‘	-10928
值	-10929
变	-10930
括	-10931
ة	-10932
ộ	-10933
微	-10934
观	-10935
د	-10936
白	-10937
练	-10938
选	-10939
集	-10940
×	-10941
备	-10942
每	-10943
优	-10944
政	-10945
达	-10946
Ш	-10947
ờ	-10948
究	-10949
身	-10950
為	-10951
容	-10952
财	-10953
适	-10954
ủ	-10955
哪	-10956
预	-10957
构	-10958
治	-10959
ん	-10960
李	-10961
─	-10962
ấ	-10963
历	-10964
户	-10965
教	-10966
步	-10967
真	-10968
ợ	-10969
女	-10970
放	-10971
环	-10972
速	-10973
消	-10974
第	-10975
精	-10976
单	-10977
格	-10978
传	-10979
找	-10980
域	-10981
战	-10982
标	-10983
這	-10984
几	-10985
始	-10986
诗	-10987
ف	-10988
造	-10989
运	-10990
领	-10991
游	-10992
商	-10993
食	-10994
ớ	-10995
夫	-10996
复	-10997
三	-10998
且	-10999
未	-11000
谢	-11001
境	-11002
整	-11003
û	-11004
少	-11005
史	-11006
立	-11007
功	-11008
形	-11009
训	-11010
ه	-11011
台	-11012
希	-11013
π	-11014
光	-11015
管	-11016
价	-11017
查	-11018
组	-11019
验	-11020
婚	-11021
料	-11022
ề	-11023
权	-11024
调	-11025
令	-11026
响	-11027
线	-11028
ฟ	-11029
员	-11030
见	-11031
ら	-11032
太	-11033
较	-11034
ح	-11035
二	-11036
喜	-11037
择	-11038
😊	-11039
さ	-11040
否	-11041
增	-11042
市	-11043
球	-11044
司	-11045
测	-11046
率	-11047
引	-11048
输	-11049
ー	-11050
互	-11051
句	-11052
简	-11053
素	-11054
像	-11055
证	-11056
快	-11057
评	-11058
ơ	-11059
أ	-11060
两	-11061
队	-11062
く	-11063
っ	-11064
も	-11065
命	-11066
故	-11067
民	-11068
き	-11069
风	-11070
ï	-11071
已	-11072
收	-11073
置	-11074
致	-11075
́	-11076
词	-11077
時	-11078
月	-11079
足	-11080
图	-11081
续	-11082
乐	-11083
妻	-11084
把	-11085
片	-11086
视	-11087
述	-11088
际	-11089
除	-11090
师	-11091
态	-11092
景	-11093
难	-11094
î	-11095
於	-11096
库	-11097
清	-11098
Ц	-11099
味	-11100
對	-11101
总	-11102
断	-11103
直	-11104
许	-11105
山	-11106
怎	-11107
戏	-11108
读	-11109
よ	-11110
欢	-11111
語	-11112
雪	-11113
س	-11114
來	-11115
兴	-11116
ị	-11117
吃	-11118
Đ	-11119
专	-11120
划	-11121
节	-11122
角	-11123
诉	-11124
え	-11125
案	-11126
金	-11127
️	-11128
會	-11129
析	-11130
带	-11131
积	-11132
联	-11133
觉	-11134
路	-11135
ど	-11136
克	-11137
即	-11138
演	-11139
花	-11140
著	-11141
转	-11142
√	-11143
势	-11144
友	-11145
口	-11146
充	-11147
满	-11148
種	-11149
菜	-11150
马	-11151
再	-11152
十	-11153
尽	-11154
排	-11155
星	-11156
限	-11157
œ	-11158
歌	-11159
ş	-11160
修	-11161
概	-11162
细	-11163
获	-11164
随	-11165
今	-11166
元	-11167
索	-11168
络	-11169
投	-11170
段	-11171
百	-11172
お	-11173
护	-11174
书	-11175
低	-11176
北	-11177
呢	-11178
策	-11179
å	-11180
ン	-11181
數	-11182
条	-11183
近	-11184
东	-11185
广	-11186
念	-11187
才	-11188
维	-11189
至	-11190
音	-11191
們	-11192
易	-11193
献	-11194
虑	-11195
门	-11196
Ж	-11197
ق	-11198
ậ	-11199
寻	-11200
私	-11201
她	-11202
移	-11203
善	-11204
配	-11205
α	-11206
农	-11207
趣	-11208
告	-11209
记	-11210
超	-11211
間	-11212
失	-11213
斯	-11214
温	-11215
热	-11216
現	-11217
並	-11218
布	-11219
状	-11220
æ	-11221
便	-11222
免	-11223
ọ	-11224
介	-11225
函	-11226
割	-11227
协	-11228
南	-11229
另	-11230
後	-11231
そ	-11232
ă	-11233
ụ	-11234
だ	-11235
份	-11236
±	-11237
头	-11238
孩	-11239
离	-11240
ج	-11241
唐	-11242
围	-11243
海	-11244
称	-11245
软	-11246
享	-11247
款	-11248
香	-11249
動	-11250
符	-11251
讲	-11252
费	-11253
ầ	-11254
應	-11255
操	-11256
显	-11257
检	-11258
济	-11259
院	-11260
ứ	-11261
似	-11262
属	-11263
打	-11264
益	-11265
越	-11266
ở	-11267
升	-11268
号	-11269
吸	-11270
客	-11271
必	-11272
房	-11273
报	-11274
描	-11275
英	-11276
せ	-11277
イ	-11278
冷	-11279
某	-11280
死	-11281
汽	-11282
爱	-11283
Í	-11284
÷	-11285
ち	-11286
や	-11287
询	-11288
進	-11289
ń	-11290
争	-11291
問	-11292
宗	-11293
機	-11294
照	-11295
独	-11296
错	-11297
═	-11298
開	-11299
阳	-11300
י	-11301
ử	-11302
ự	-11303
减	-11304
华	-11305
博	-11306
采	-11307
降	-11308
古	-11309
异	-11310
抱	-11311
ğ	-11312
،	-11313
⁄	-11314
债	-11315
判	-11316
士	-11317
學	-11318
避	-11319
ổ	-11320
候	-11321
医	-11322
尝	-11323
控	-11324
男	-11325
础	-11326
药	-11327
類	-11328
ữ	-11329
ス	-11330
住	-11331
幻	-11332
玩	-11333
荐	-11334
酒	-11335
按	-11336
极	-11337
释	-11338
麼	-11339
Ä	-11340
つ	-11341
付	-11342
施	-11343
材	-11344
確	-11345
级	-11346
ắ	-11347
„	-11348
往	-11349
搜	-11350
犯	-11351
略	-11352
站	-11353
翻	-11354
肉	-11355
過	-11356
ε	-11357
ト	-11358
假	-11359
健	-11360
切	-11361
挑	-11362
疗	-11363
→	-11364
周	-11365
轻	-11366
富	-11367
差	-11368
春	-11369
绍	-11370
范	-11371
話	-11372
ồ	-11373
−	-11374
京	-11375
亲	-11376
含	-11377
城	-11378
河	-11379
福	-11380
­	-11381
★	-11382
め	-11383
审	-11384
架	-11385
歉	-11386
般	-11387
ה	-11388
压	-11389
笑	-11390
约	-11391
ו	-11392
德	-11393
杂	-11394
血	-11395
送	-11396
け	-11397
ク	-11398
局	-11399
待	-11400
油	-11401
病	-11402
خ	-11403
企	-11404
听	-11405
早	-11406
曲	-11407
聊	-11408
误	-11409
险	-11410
據	-11411
火	-11412
版	-11413
监	-11414
负	-11415
餐	-11416
ő	-11417
θ	-11418
ל	-11419
ى	-11420
嗎	-11421
换	-11422
依	-11423
典	-11424
四	-11425
团	-11426
灵	-11427
背	-11428
關	-11429
ص	-11430
「	-11431
」	-11432
ア	-11433
剧	-11434
與	-11435
译	-11436
仅	-11437
估	-11438
章	-11439
結	-11440
缺	-11441
详	-11442
ฝ	-11443
│	-11444
姻	-11445
體	-11446
ỳ	-11447
み	-11448
オ	-11449
・	-11450
块	-11451
密	-11452
府	-11453
执	-11454
端	-11455
频	-11456
ฤ	-11457
养	-11458
務	-11459
將	-11460
康	-11461
摄	-11462
留	-11463
眼	-11464
老	-11465
谁	-11466
贡	-11467
ð	-11468
μ	-11469
ッ	-11470
双	-11471
止	-11472
红	-11473
航	-11474
點	-11475
ỉ	-11476
≈	-11477
官	-11478
张	-11479
承	-11480
旅	-11481
ý	-11482
ط	-11483
偏	-11484
兵	-11485
困	-11486
幸	-11487
拟	-11488
泛	-11489
發	-11490
链	-11491
リ	-11492
举	-11493
办	-11494
印	-11495
扩	-11496
担	-11497
核	-11498
继	-11499
装	-11500
讨	-11501
购	-11502
τ	-11503
別	-11504
咖	-11505
啡	-11506
ش	-11507
‍	-11508
わ	-11509
又	-11510
声	-11511
媒	-11512
實	-11513
探	-11514
申	-11515
筑	-11516
钟	-11517
防	-11518
饮	-11519
Ö	-11520
ø	-11521
カ	-11522
六	-11523
尔	-11524
拉	-11525
晚	-11526
暖	-11527
营	-11528
計	-11529
說	-11530
遇	-11531
青	-11532
®	-11533
ذ	-11534
⣶	-11535
万	-11536
仍	-11537
愿	-11538
散	-11539
江	-11540
画	-11541
良	-11542
艺	-11543
返	-11544
连	-11545
飞	-11546
黑	-11547
ā	-11548
ね	-11549
ば	-11550
武	-11551
經	-11552
谷	-11553
阅	-11554
靠	-11555
ë	-11556
ο	-11557
א	-11558
五	-11559
初	-11560
吧	-11561
夜	-11562
察	-11563
志	-11564
职	-11565
边	-11566
追	-11567
遍	-11568
ặ	-11569
∫	-11570
║	-11571
归	-11572
捐	-11573
板	-11574
構	-11575
漫	-11576
落	-11577
長	-11578
Щ	-11579
ת	-11580
ض	-11581
击	-11582
射	-11583
朋	-11584
朝	-11585
炸	-11586
熟	-11587
皇	-11588
责	-11589
载	-11590
远	-11591
ρ	-11592
І	-11593
云	-11594
众	-11595
刻	-11596
劳	-11597
宣	-11598
攻	-11599
權	-11600
液	-11601
激	-11602
绝	-11603
題	-11604
ث	-11605
シ	-11606
卡	-11607
室	-11608
慢	-11609
東	-11610
赛	-11611
還	-11612
Ú	-11613
ा	-11614
┼	-11615
ょ	-11616
买	-11617
幫	-11618
庭	-11619
束	-11620
決	-11621
猫	-11622
積	-11623
终	-11624
處	-11625
虽	-11626
該	-11627
践	-11628
雨	-11629
鸡	-11630
ナ	-11631
丰	-11632
军	-11633
冲	-11634
批	-11635
拥	-11636
斗	-11637
松	-11638
適	-11639
📈	-11640
¬	-11641
ル	-11642
國	-11643
奇	-11644
奶	-11645
守	-11646
害	-11647
港	-11648
突	-11649
認	-11650
课	-11651
跟	-11652
静	-11653
土	-11654
左	-11655
座	-11656
林	-11657
织	-11658
習	-11659
請	-11660
ר	-11661
ฐ	-11662
⠿	-11663
千	-11664
午	-11665
啊	-11666
圳	-11667
循	-11668
涉	-11669
統	-11670
群	-11671
逐	-11672
ι	-11673
Ю	-11674
غ	-11675
ご	-11676
俑	-11677
努	-11678
王	-11679
短	-11680
穿	-11681
練	-11682
見	-11683
走	-11684
辑	-11685
键	-11686
乎	-11687
叫	-11688
居	-11689
干	-11690
竞	-11691
草	-11692
须	-11693
颜	-11694
タ	-11695
亡	-11696
樣	-11697
稳	-11698
篇	-11699
組	-11700
隐	-11701
馈	-11702
😉	-11703
£	-11704
ν	-11705
्	-11706
巴	-11707
帝	-11708
浪	-11709
甚	-11710
虚	-11711
詩	-11712
💰	-11713
ਾ	-11714
ằ	-11715
威	-11716
炒	-11717
症	-11718
登	-11719
纪	-11720
車	-11721
透	-11722
雷	-11723
饰	-11724
黄	-11725
ừ	-11726
ラ	-11727
偶	-11728
右	-11729
征	-11730
從	-11731
杀	-11732
母	-11733
衡	-11734
访	-11735
骤	-11736
ゃ	-11737
ド	-11738
九	-11739
储	-11740
劣	-11741
呼	-11742
园	-11743
封	-11744
尊	-11745
层	-11746
巧	-11747
录	-11748
托	-11749
歷	-11750
氏	-11751
泡	-11752
添	-11753
牌	-11754
節	-11755
繁	-11756
茶	-11757
風	-11758
Ó	-11759
ź	-11760
ز	-11761
ฮ	-11762
じ	-11763
临	-11764
兩	-11765
固	-11766
患	-11767
掌	-11768
普	-11769
框	-11770
楼	-11771
粉	-11772
赠	-11773
迎	-11774
運	-11775
選	-11776
银	-11777
阶	-11778
障	-11779
ם	-11780
ی	-11781
र	-11782
ウ	-11783
エ	-11784
严	-11785
咨	-11786
均	-11787
巨	-11788
底	-11789
恐	-11790
杜	-11791
毒	-11792
氣	-11793
烹	-11794
當	-11795
疑	-11796
痛	-11797
禁	-11798
📉	-11799
מ	-11800
ש	-11801
त	-11802
๊	-11803
串	-11804
佛	-11805
促	-11806
儿	-11807
冰	-11808
哥	-11809
培	-11810
岸	-11811
州	-11812
握	-11813
暗	-11814
替	-11815
気	-11816
潜	-11817
班	-11818
睛	-11819
礼	-11820
补	-11821
訓	-11822
遗	-11823
针	-11824
陆	-11825
饭	-11826
Ω	-11827
λ	-11828
إ	-11829
ョ	-11830
余	-11831
励	-11832
却	-11833
參	-11834
宇	-11835
宋	-11836
弱	-11837
抗	-11838
搭	-11839
曾	-11840
業	-11841
灯	-11842
石	-11843
苦	-11844
蛋	-11845
許	-11846
讓	-11847
逻	-11848
À	-11849
ĩ	-11850
Й	-11851
כ	-11852
♙	-11853
♟	-11854
チ	-11855
丽	-11856
久	-11857
乡	-11858
妈	-11859
宙	-11860
摘	-11861
族	-11862
染	-11863
校	-11864
洁	-11865
混	-11866
紧	-11867
苹	-11868
裡	-11869
試	-11870
變	-11871
豆	-11872
距	-11873
途	-11874
鼓	-11875
다	-11876
🤓	-11877
η	-11878
ً	-11879
バ	-11880
レ	-11881
區	-11882
卷	-11883
堂	-11884
套	-11885
波	-11886
狗	-11887
玛	-11888
碼	-11889
設	-11890
雄	-11891
饪	-11892
ō	-11893
ς	-11894
ئ	-11895
≤	-11896
╗	-11897
♭	-11898
⠛	-11899
ロ	-11900
仰	-11901
休	-11902
內	-11903
删	-11904
場	-11905
恋	-11906
押	-11907
拆	-11908
授	-11909
擇	-11910
沟	-11911
爆	-11912
破	-11913
育	-11914
脑	-11915
讼	-11916
輸	-11917
遵	-11918
销	-11919
龙	-11920
🤔	-11921
₽	-11922
∈	-11923
ジ	-11924
予	-11925
哈	-11926
圖	-11927
坚	-11928
強	-11929
彼	-11930
悉	-11931
木	-11932
棋	-11933
汉	-11934
沒	-11935
無	-11936
父	-11937
環	-11938
秦	-11939
網	-11940
羊	-11941
聚	-11942
質	-11943
阿	-11944
零	-11945
革	-11946
φ	-11947
ѣ	-11948
َ	-11949
്	-11950
ハ	-11951
亚	-11952
佳	-11953
刚	-11954
娜	-11955
杯	-11956
洋	-11957
洲	-11958
湾	-11959
籍	-11960
融	-11961
視	-11962
览	-11963
订	-11964
響	-11965
顺	-11966
フ	-11967
マ	-11968
亮	-11969
伤	-11970
停	-11971
八	-11972
喝	-11973
執	-11974
尤	-11975
急	-11976
惯	-11977
措	-11978
末	-11979
渐	-11980
秘	-11981
米	-11982
罪	-11983
脉	-11984
舞	-11985
闭	-11986
露	-11987
🌟	-11988
स	-11989
ฒ	-11990
∨	-11991
コ	-11992
借	-11993
偿	-11994
單	-11995
季	-11996
忆	-11997
抽	-11998
敌	-11999
映	-12000
柿	-12001
樹	-12002
玉	-12003
皮	-12004
糖	-12005
缩	-12006
若	-12007
記	-12008
識	-12009
闻	-12010
隊	-12011
驾	-12012
υ	-12013
נ	-12014
╝	-12015
⣤	-12016
ざ	-12017
ほ	-12018
乱	-12019
伦	-12020
册	-12021
夸	-12022
專	-12023
岳	-12024
挥	-12025
擎	-12026
梦	-12027
準	-12028
甫	-12029
省	-12030
箱	-12031
線	-12032
绪	-12033
缓	-12034
舒	-12035
術	-12036
钱	-12037
顾	-12038
默	-12039
Â	-12040
ء	-12041
ک	-12042
๋	-12043
⋅	-12044
╚	-12045
亿	-12046
俗	-12047
員	-12048
唱	-12049
址	-12050
坏	-12051
宝	-12052
寫	-12053
摩	-12054
敏	-12055
椒	-12056
欧	-12057
池	-12058
滤	-12059
童	-12060
综	-12061
脱	-12062
触	-12063
违	-12064
铁	-12065
니	-12066
︎	-12067
🚀	-12068
þ	-12069
ב	-12070
ह	-12071
్	-12072
ẹ	-12073
べ	-12074
ャ	-12075
仿	-12076
則	-12077
半	-12078
哲	-12079
妆	-12080
嫁	-12081
床	-12082
径	-12083
愛	-12084
拍	-12085
掉	-12086
標	-12087
殊	-12088
湖	-12089
牛	-12090
睡	-12091
義	-12092
聞	-12093
肥	-12094
覆	-12095
調	-12096
議	-12097
败	-12098
隆	-12099
는	-12100
하	-12101
ũ	-12102
े	-12103
丈	-12104
仙	-12105
允	-12106
創	-12107
危	-12108
叉	-12109
尚	-12110
師	-12111
幾	-12112
弹	-12113
彩	-12114
暴	-12115
桃	-12116
档	-12117
永	-12118
盖	-12119
編	-12120
罗	-12121
耗	-12122
裝	-12123
複	-12124
評	-12125
資	-12126
锋	-12127
陵	-12128
页	-12129
👍	-12130
ί	-12131
σ	-12132
ґ	-12133
ి	-12134
ẽ	-12135
≠	-12136
ず	-12137
ろ	-12138
乏	-12139
乘	-12140
倒	-12141
净	-12142
奖	-12143
導	-12144
尼	-12145
恶	-12146
惑	-12147
损	-12148
播	-12149
杰	-12150
桥	-12151
楚	-12152
欣	-12153
毛	-12154
污	-12155
浅	-12156
浓	-12157
測	-12158
滿	-12159
烈	-12160
烧	-12161
督	-12162
終	-12163
總	-12164
艾	-12165
轉	-12166
逼	-12167
锅	-12168
難	-12169
馆	-12170
鸟	-12171
È	-12172
β	-12173
ं	-12174
क	-12175
ी	-12176
♀	-12177
七	-12178
伊	-12179
冠	-12180
剂	-12181
厅	-12182
怪	-12183
旦	-12184
枝	-12185
树	-12186
漏	-12187
烤	-12188
焦	-12189
甘	-12190
疾	-12191
票	-12192
簡	-12193
紅	-12194
股	-12195
胞	-12196
脚	-12197
警	-12198
貓	-12199
贷	-12200
載	-12201
達	-12202
釋	-12203
雇	-12204
預	-12205
鱼	-12206
가	-12207
😁	-12208
🤗	-12209
	-12210
κ	-12211
Ґ	-12212
म	-12213
∀	-12214
└	-12215
✦	-12216
テ	-12217
ピ	-12218
ム	-12219
伝	-12220
侧	-12221
偷	-12222
優	-12223
君	-12224
夠	-12225
怀	-12226
恢	-12227
悲	-12228
愁	-12229
戰	-12230
既	-12231
柳	-12232
況	-12233
猴	-12234
盛	-12235
祝	-12236
稿	-12237
給	-12238
膨	-12239
苏	-12240
莫	-12241
蒜	-12242
論	-12243
野	-12244
際	-12245
韵	-12246
魔	-12247
의	-12248
💪	-12249
ű	-12250
ˈ	-12251
̈	-12252
ח	-12253
؟	-12254
ਹ	-12255
ฏ	-12256
▀	-12257
♂	-12258
げ	-12259
丁	-12260
係	-12261
備	-12262
坦	-12263
壳	-12264
尋	-12265
屋	-12266
幽	-12267
店	-12268
延	-12269
惧	-12270
懂	-12271
折	-12272
掷	-12273
擅	-12274
旨	-12275
沙	-12276
潮	-12277
灣	-12278
甜	-12279
番	-12280
笔	-12281
署	-12282
袭	-12283
谱	-12284
豪	-12285
趋	-12286
跃	-12287
跨	-12288
迁	-12289
迅	-12290
電	-12291
顿	-12292
驟	-12293
기	-12294
👉	-12295
	-12296
ː	-12297
δ	-12298
ि	-12299
ਕ	-12300
╔	-12301
ブ	-12302
伴	-12303
侵	-12304
僕	-12305
占	-12306
卫	-12307
尾	-12308
屏	-12309
忽	-12310
慮	-12311
拿	-12312
書	-12313
灾	-12314
炼	-12315
狼	-12316
疲	-12317
秋	-12318
绩	-12319
萨	-12320
藏	-12321
虫	-12322
製	-12323
覺	-12324
訪	-12325
赏	-12326
跳	-12327
辆	-12328
迷	-12329
闰	-12330
陽	-12331
隔	-12332
頭	-12333
驶	-12334
😃	-12335
§	-12336
Ы	-12337
ो	-12338
া	-12339
ฎ	-12340
├	-12341
グ	-12342
サ	-12343
ズ	-12344
启	-12345
唆	-12346
塑	-12347
層	-12348
怕	-12349
惊	-12350
抵	-12351
欲	-12352
沉	-12353
洛	-12354
浏	-12355
爲	-12356
疫	-12357
硬	-12358
碍	-12359
碧	-12360
磁	-12361
秩	-12362
級	-12363
細	-12364
蒸	-12365
衣	-12366
醒	-12367
韻	-12368
😂	-12369
😄	-12370
ə	-12371
γ	-12372
ω	-12373
ظ	-12374
ے	-12375
न	-12376
ਂ	-12377
ฬ	-12378
ễ	-12379
′	-12380
∧	-12381
ェ	-12382
丝	-12383
乙	-12384
仔	-12385
倾	-12386
傳	-12387
啥	-12388
奥	-12389
宫	-12390
岗	-12391
废	-12392
弃	-12393
扮	-12394
拌	-12395
插	-12396
杭	-12397
森	-12398
派	-12399
滑	-12400
田	-12401
療	-12402
盐	-12403
眠	-12404
签	-12405
約	-12406
纳	-12407
翠	-12408
耐	-12409
脂	-12410
葱	-12411
詞	-12412
謝	-12413
贵	-12414
赋	-12415
赖	-12416
赫	-12417
递	-12418
酸	-12419
錯	-12420
额	-12421
麦	-12422
🎉	-12423
Δ	-12424
ό	-12425
Ь	-12426
ג	-12427
ע	-12428
ُ	-12429
ہ	-12430
प	-12431
ਸ	-12432
ẫ	-12433
ỏ	-12434
⊆	-12435
プ	-12436
ュ	-12437
伯	-12438
催	-12439
傻	-12440
勇	-12441
匹	-12442
圆	-12443
坐	-12444
奏	-12445
姑	-12446
寄	-12447
屬	-12448
川	-12449
慧	-12450
戦	-12451
搞	-12452
救	-12453
暮	-12454
氛	-12455
淡	-12456
湘	-12457
滴	-12458
燃	-12459
牙	-12460
畅	-12461
発	-12462
續	-12463
纯	-12464
绕	-12465
蔬	-12466
货	-12467
較	-12468
辞	-12469
闪	-12470
雜	-12471
魂	-12472
魅	-12473
黨	-12474
로	-12475
지	-12476
한	-12477
💸	-12478
ī	-12479
ύ	-12480
य	-12481
ਤ	-12482
ਰ	-12483
ం	-12484
♪	-12485
ィ	-12486
キ	-12487
仕	-12488
仪	-12489
伟	-12490
儒	-12491
兒	-12492
兔	-12493
冒	-12494
匀	-12495
卖	-12496
吉	-12497
塊	-12498
塔	-12499
奔	-12500
嬸	-12501
孤	-12502
実	-12503
幕	-12504
弗	-12505
恒	-12506
恩	-12507
慰	-12508
戶	-12509
捕	-12510
斜	-12511
旧	-12512
晰	-12513
楽	-12514
毁	-12515
沿	-12516
泵	-12517
洞	-12518
润	-12519
減	-12520
湿	-12521
漠	-12522
煮	-12523
燕	-12524
獨	-12525
瓶	-12526
盘	-12527
碳	-12528
秀	-12529
秒	-12530
稀	-12531
纲	-12532
绿	-12533
聲	-12534
肯	-12535
荒	-12536
誤	-12537
诚	-12538
诺	-12539
谈	-12540
赞	-12541
輪	-12542
辣	-12543
迭	-12544
退	-12545
門	-12546
阴	-12547
阻	-12548
領	-12549
願	-12550
驱	-12551
骑	-12552
를	-12553
～	-12554
🙏	-12555
Ñ	-12556
č	-12557
ě	-12558
Φ	-12559
ή	-12560
Є	-12561
ِ	-12562
।	-12563
ন	-12564
র	-12565
்	-12566
న	-12567
ฯ	-12568
‐	-12569
∞	-12570
む	-12571
デ	-12572
メ	-12573
党	-12574
兰	-12575
冬	-12576
刷	-12577
副	-12578
協	-12579
厚	-12580
吐	-12581
售	-12582
唯	-12583
圣	-12584
報	-12585
妙	-12586
娃	-12587
孔	-12588
宏	-12589
庫	-12590
恰	-12591
戒	-12592
扣	-12593
扫	-12594
拒	-12595
拓	-12596
換	-12597
撰	-12598
暂	-12599
氨	-12600
渗	-12601
灭	-12602
爬	-12603
畫	-12604
瘟	-12605
碎	-12606
税	-12607
紫	-12608
累	-12609
維	-12610
绘	-12611
翅	-12612
耳	-12613
胜	-12614
船	-12615
芯	-12616
茄	-12617
護	-12618
谜	-12619
負	-12620
迹	-12621
逃	-12622
酱	-12623
锻	-12624
附	-12625
陶	-12626
饿	-12627
骰	-12628
鲁	-12629
어	-12630
이	-12631
🙂	-12632
🤖	-12633
ά	-12634
ז	-12635
צ	-12636
ק	-12637
ज	-12638
ब	-12639
व	-12640
ക	-12641
ു	-12642
ỷ	-12643
∂	-12644
々	-12645
ソ	-12646
パ	-12647
冥	-12648
刀	-12649
咸	-12650
坑	-12651
壮	-12652
夏	-12653
姿	-12654
尺	-12655
屯	-12656
悠	-12657
扬	-12658
援	-12659
搅	-12660
携	-12661
晴	-12662
柔	-12663
様	-12664
汇	-12665
洗	-12666
浮	-12667
渡	-12668
溫	-12669
溶	-12670
熊	-12671
狮	-12672
產	-12673
稱	-12674
聘	-12675
聪	-12676
肴	-12677
胁	-12678
脸	-12679
膀	-12680
芳	-12681
菌	-12682
薄	-12683
規	-12684
誰	-12685
诸	-12686
貌	-12687
賴	-12688
辅	-12689
辛	-12690
辨	-12691
邊	-12692
邮	-12693
関	-12694
闲	-12695
隨	-12696
颗	-12697
鲜	-12698
고	-12699
역	-12700
있	-12701
🍎	-12702
💥	-12703
💻	-12704
💼	-12705
🔥	-12706
🤴	-12707
Ç	-12708
ˆ	-12709
ਦ	-12710
ప	-12711
ర	-12712
ി	-12713
―	-12714
⊢	-12715
♯	-12716
⣀	-12717
び	-12718
へ	-12719
ゲ	-12720
ニ	-12721
ミ	-12722
ワ	-12723
凉	-12724
厦	-12725
叙	-12726
噪	-12727
圈	-12728
填	-12729
壤	-12730
姜	-12731
寒	-12732
岡	-12733
廣	-12734
張	-12735
彻	-12736
御	-12737
忌	-12738
忘	-12739
愉	-12740
扰	-12741
掩	-12742
揭	-12743
朗	-12744
村	-12745
汪	-12746
涵	-12747
炎	-12748
猜	-12749
獲	-12750
甸	-12751
砂	-12752
筛	-12753
経	-12754
緒	-12755
胡	-12756
膜	-12757
莉	-12758
萬	-12759
葉	-12760
誉	-12761
譯	-12762
贫	-12763
贴	-12764
跑	-12765
遊	-12766
違	-12767
遭	-12768
邪	-12769
酚	-12770
醫	-12771
鏈	-12772
镇	-12773
陷	-12774
霖	-12775
項	-12776
頻	-12777
驗	-12778
麻	-12779
黛	-12780
국	-12781
번	-12782
해	-12783
🎁	-12784
👋	-12785
💋	-12786
📚	-12787
Ã	-12788
ָ	-12789
ি	-12790
্	-12791
స	-12792
ా	-12793
⃣	-12794
∩	-12795
≥	-12796
⣉	-12797
ケ	-12798
ダ	-12799
乳	-12800
仲	-12801
伏	-12802
侠	-12803
倍	-12804
傲	-12805
價	-12806
刘	-12807
卿	-12808
叶	-12809
哭	-12810
圾	-12811
垃	-12812
堅	-12813
変	-12814
奋	-12815
娱	-12816
岁	-12817
峰	-12818
币	-12819
庙	-12820
惕	-12821
惠	-12822
抄	-12823
抑	-12824
挺	-12825
旋	-12826
欺	-12827
歡	-12828
汤	-12829
洒	-12830
溝	-12831
溯	-12832
漂	-12833
烦	-12834
狀	-12835
玻	-12836
璃	-12837
異	-12838
租	-12839
粘	-12840
紹	-12841
纹	-12842
缪	-12843
缴	-12844
聯	-12845
肌	-12846
肢	-12847
胸	-12848
脫	-12849
腦	-12850
舟	-12851
荣	-12852
薦	-12853
街	-12854
袖	-12855
觀	-12856
詳	-12857
讯	-12858
赤	-12859
踪	-12860
辦	-12861
辺	-12862
鐵	-12863
镜	-12864
陈	-12865
습	-12866
에	-12867
여	-12868
🤚	-12869
ū	-12870
ɑ	-12871
̇	-12872
χ	-12873
פ	-12874
آ	-12875
आ	-12876
ै	-12877
ে	-12878
ਨ	-12879
ਿ	-12880
ੇ	-12881
க	-12882
ẻ	-12883
ỹ	-12884
₹	-12885
∪	-12886
♖	-12887
♗	-12888
♘	-12889
♜	-12890
♝	-12891
♞	-12892
⠁	-12893
⡇	-12894
ぎ	-12895
ぜ	-12896
伸	-12897
儲	-12898
刺	-12899
吹	-12900
呈	-12901
嘴	-12902
墙	-12903
姆	-12904
委	-12905
孟	-12906
宮	-12907
尿	-12908
徒	-12909
忙	-12910
忧	-12911
愈	-12912
態	-12913
戴	-12914
拖	-12915
挂	-12916
斑	-12917
昂	-12918
昆	-12919
晨	-12920
曆	-12921
朵	-12922
植	-12923
氧	-12924
沫	-12925
泉	-12926
泽	-12927
浩	-12928
淨	-12929
滨	-12930
烟	-12931
煞	-12932
狂	-12933
猎	-12934
皆	-12935
県	-12936
礎	-12937
祖	-12938
穩	-12939
窗	-12940
籃	-12941
絕	-12942
繼	-12943
纠	-12944
翼	-12945
肤	-12946
莲	-12947
蓝	-12948
蜜	-12949
裁	-12950
観	-12951
談	-12952
诱	-12953
買	-12954
账	-12955
贸	-12956
逝	-12957
遠	-12958
郎	-12959
醉	-12960
锁	-12961
閏	-12962
陣	-12963
鳥	-12964
鸣	-12965
麽	-12966
을	-12967
🌊	-12968
🌳	-12969
🏻	-12970
🏼	-12971
😅	-12972
🤯	-12973
🤷	-12974
	-12975
©	-12976
ē	-12977
ǒ	-12978
ț	-12979
ɐ	-12980
ɡ	-12981
ד	-12982
ך	-12983
١	-12984
য	-12985
ਇ	-12986
ਮ	-12987
ਵ	-12988
చ	-12989
ട	-12990
ẳ	-12991
ỗ	-12992
⏰	-12993
┈	-12994
┊	-12995
▄	-12996
✨	-12997
⠈	-12998
ぞ	-12999
ゴ	-13000
ネ	-13001
ボ	-13002
伺	-13003
倡	-13004
冻	-13005
凌	-13006
凝	-13007
厄	-13008
叔	-13009
埃	-13010
堵	-13011
奉	-13012
媽	-13013
嫩	-13014
孢	-13015
宽	-13016
対	-13017
帶	-13018
幼	-13019
慈	-13020
慎	-13021
招	-13022
拨	-13023
斷	-13024
暦	-13025
曰	-13026
残	-13027
淘	-13028
潺	-13029
澳	-13030
烘	-13031
熬	-13032
熱	-13033
爵	-13034
珍	-13035
碰	-13036
穆	-13037
粒	-13038
粥	-13039
絡	-13040
罚	-13041
耦	-13042
肃	-13043
肪	-13044
腌	-13045
腿	-13046
膳	-13047
芒	-13048
號	-13049
親	-13050
討	-13051
誕	-13052
説	-13053
證	-13054
讀	-13055
诵	-13056
費	-13057
賞	-13058
贝	-13059
迫	-13060
連	-13061
酰	-13062
醛	-13063
閱	-13064
陳	-13065
陸	-13066
險	-13067
雅	-13068
離	-13069
雲	-13070
霜	-13071
顯	-13072
験	-13073
骨	-13074
금	-13075
반	-13076
신	-13077
은	-13078
인	-13079
🌞	-13080
🎨	-13081
🏰	-13082
👥	-13083
👨	-13084
💃	-13085
💡	-13086
🤝	-13087
İ	-13088
Θ	-13089
έ	-13090
ַ	-13091
ּ	-13092
ט	-13093
ס	-13094
अ	-13095
ण	-13096
ক	-13097
ਲ	-13098
ੀ	-13099
ி	-13100
ு	-13101
മ	-13102
ฆ	-13103
ฑ	-13104
‚	-13105
†	-13106
›	-13107
╟	-13108
╢	-13109
╤	-13110
╧	-13111
♦	-13112
❤	-13113
⠃	-13114
⠇	-13115
⠉	-13116
⠊	-13117
⠋	-13118
⠑	-13119
⠙	-13120
⡀	-13121
⢸	-13122
ノ	-13123
ビ	-13124
ベ	-13125
ペ	-13126
丘	-13127
乔	-13128
仄	-13129
佔	-13130
億	-13131
兄	-13132
兽	-13133
凍	-13134
刊	-13135
効	-13136
勝	-13137
卓	-13138
卧	-13139
収	-13140
喻	-13141
嘛	-13142
圍	-13143
坛	-13144
塞	-13145
壓	-13146
央	-13147
宁	-13148
宅	-13149
宿	-13150
寸	-13151
岛	-13152
岩	-13153
嵌	-13154
庆	-13155
庐	-13156
廷	-13157
役	-13158
恨	-13159
截	-13160
拜	-13161
捉	-13162
撞	-13163
擁	-13164
敦	-13165
敬	-13166
昭	-13167
晶	-13168
枢	-13169
梯	-13170
械	-13171
棒	-13172
樂	-13173
欠	-13174
歧	-13175
毫	-13176
泊	-13177
泣	-13178
渴	-13179
湛	-13180
漢	-13181
濟	-13182
瀑	-13183
焙	-13184
煽	-13185
玄	-13186
琴	-13187
瓜	-13188
甲	-13189
盡	-13190
硫	-13191
笛	-13192
粮	-13193
紛	-13194
続	-13195
緩	-13196
縮	-13197
繞	-13198
纽	-13199
绵	-13200
聖	-13201
聽	-13202
肠	-13203
腾	-13204
興	-13205
芬	-13206
華	-13207
菲	-13208
蓋	-13209
蔥	-13210
薯	-13211
蛛	-13212
裔	-13213
詹	-13214
诞	-13215
谋	-13216
輛	-13217
郁	-13218
郡	-13219
酬	-13220
醋	-13221
锦	-13222
阵	-13223
雑	-13224
顶	-13225
館	-13226
饥	-13227
饱	-13228
駕	-13229
鹤	-13230
鼠	-13231
龄	-13232
느	-13233
리	-13234
미	-13235
재	-13236
	-13237
	-13238
🌋	-13239
🌍	-13240
🌴	-13241
🏃	-13242
🏊	-13243
👀	-13244
💀	-13245
😔	-13246
🤣	-13247
🥑	-13248
􀀀	-13249
Å	-13250
Ô	-13251
Þ	-13252
Č	-13253
Ś	-13254
Š	-13255
च	-13256
ম	-13257
ਪ	-13258
਼	-13259
ੁ	-13260
ੈ	-13261
ੋ	-13262
ம	-13263
ట	-13264
ങ	-13265
ച	-13266
യ	-13267
റ	-13268
ḗ	-13269
∠	-13270
⢀	-13271
⣄	-13272
ぶ	-13273
セ	-13274
丑	-13275
丹	-13276
乗	-13277
亭	-13278
仆	-13279
侣	-13280
倫	-13281
兼	-13282
処	-13283
凭	-13284
刹	-13285
剑	-13286
勒	-13287
勞	-13288
勤	-13289
勵	-13290
卤	-13291
叛	-13292
呀	-13293
哀	-13294
喷	-13295
嘗	-13296
図	-13297
園	-13298
垂	-13299
堆	-13300
奈	-13301
婉	-13302
嫌	-13303
寓	-13304
尬	-13305
尴	-13306
崩	-13307
巡	-13308
巩	-13309
帅	-13310
庞	-13311
徴	-13312
恼	-13313
悦	-13314
抒	-13315
披	-13316
抬	-13317
拼	-13318
撒	-13319
擂	-13320
擴	-13321
敢	-13322
昏	-13323
栖	-13324
槽	-13325
檔	-13326
歴	-13327
毕	-13328
汁	-13329
汝	-13330
汰	-13331
泻	-13332
浙	-13333
淹	-13334
渚	-13335
滋	-13336
潛	-13337
烂	-13338
爷	-13339
爾	-13340
狩	-13341
珠	-13342
瓦	-13343
睿	-13344
瞳	-13345
矩	-13346
矿	-13347
碗	-13348
禮	-13349
稍	-13350
粤	-13351
糕	-13352
紀	-13353
纷	-13354
缘	-13355
翩	-13356
耀	-13357
肺	-13358
胀	-13359
腐	-13360
腹	-13361
舊	-13362
艰	-13363
芙	-13364
茫	-13365
荷	-13366
萄	-13367
葡	-13368
蓄	-13369
蓉	-13370
蓟	-13371
蕴	-13372
藝	-13373
藥	-13374
蜂	-13375
蜘	-13376
觸	-13377
訂	-13378
訳	-13379
訴	-13380
読	-13381
谅	-13382
谪	-13383
責	-13384
贯	-13385
赔	-13386
軟	-13387
輕	-13388
轮	-13389
轼	-13390
辐	-13391
辩	-13392
迄	-13393
醬	-13394
錄	-13395
鎖	-13396
钢	-13397
钻	-13398
阔	-13399
陪	-13400
雾	-13401
霍	-13402
顔	-13403
飄	-13404
飘	-13405
飛	-13406
馏	-13407
馬	-13408
鬼	-13409
鮮	-13410
鹂	-13411
麵	-13412
黎	-13413
鼻	-13414
각	-13415
귤	-13416
날	-13417
도	-13418
름	-13419
밭	-13420
사	-13421
수	-13422
영	-13423
으	-13424
음	-13425
	-13426
	-13427
🏆	-13428
👃	-13429
📝	-13430
😀	-13431
😋	-13432
😜	-13433
🙌	-13434
🚗	-13435
🛡	-13436
	-13437
	-13438
	-13439
¦	-13440
ʼ	-13441
Ї	-13442
ֶ	-13443
ؤ	-13444
ْ	-13445
پ	-13446
द	-13447
ल	-13448
এ	-13449
প	-13450
়	-13451
ਈ	-13452
ੰ	-13453
ன	-13454
క	-13455
ల	-13456
പ	-13457
‰	-13458
∑	-13459
●	-13460
♔	-13461
♕	-13462
♚	-13463
♛	-13464
⛪	-13465
✈	-13466
❯	-13467
⠗	-13468
⣠	-13469
⣦	-13470
⣴	-13471
⣷	-13472
⣾	-13473
モ	-13474
丧	-13475
乃	-13476
乌	-13477
亦	-13478
仑	-13479
仗	-13480
伙	-13481
佈	-13482
俄	-13483
俊	-13484
傍	-13485
傷	-13486
剛	-13487
剥	-13488
劇	-13489
勢	-13490
勺	-13491
卵	-13492
厂	-13493
县	-13494
叹	-13495
哦	-13496
唇	-13497
啤	-13498
圓	-13499
堤	-13500
墨	-13501
夹	-13502
妖	-13503
妮	-13504
姓	-13505
婆	-13506
嬉	-13507
宪	-13508
寝	-13509
崇	-13510
帐	-13511
帰	-13512
帽	-13513
幅	-13514
廉	-13515
弄	-13516
弘	-13517
復	-13518
徵	-13519
忍	-13520
怖	-13521
惜	-13522
憶	-13523
戲	-13524
扁	-13525
抚	-13526
拂	-13527
拔	-13528
挙	-13529
損	-13530
斤	-13531
暇	-13532
暑	-13533
柯	-13534
沃	-13535
泥	-13536
涨	-13537
渠	-13538
滚	-13539
燥	-13540
猪	-13541
瑟	-13542
瓷	-13543
盒	-13544
眉	-13545
瞬	-13546
磨	-13547
穷	-13548
筋	-13549
範	-13550
築	-13551
粗	-13552
翔	-13553
胃	-13554
胆	-13555
脆	-13556
腊	-13557
舆	-13558
莱	-13559
蒙	-13560
蔽	-13561
蘿	-13562
袋	-13563
裏	-13564
詢	-13565
謊	-13566
譽	-13567
诊	-13568
谐	-13569
谨	-13570
貨	-13571
軍	-13572
轨	-13573
迈	-13574
逆	-13575
逢	-13576
週	-13577
遷	-13578
邀	-13579
酪	-13580
鉴	-13581
鍵	-13582
镖	-13583
阐	-13584
靜	-13585
靡	-13586
鞋	-13587
骗	-13588
魚	-13589
麗	-13590
齐	-13591
그	-13592
년	-13593
보	-13594
부	-13595
서	-13596
시	-13597
요	-13598
워	-13599
입	-13600
존	-13601
줘	-13602
채	-13603
트	-13604
합	-13605
🌅	-13606
🎮	-13607
🏦	-13608
👑	-13609
💎	-13610
💖	-13611
🔍	-13612
🔹	-13613
🕰	-13614
😎	-13615
🤢	-13616
🤨	-13617
🧤	-13618
	-13619
¢	-13620
Ł	-13621
ř	-13622
š	-13623
ǐ	-13624
ǫ	-13625
ɒ	-13626
ɟ	-13627
ɦ	-13628
ɪ	-13629
ˌ	-13630
̀	-13631
ա	-13632
ի	-13633
ն	-13634
ְ	-13635
ן	-13636
ף	-13637
ّ	-13638
ڈ	-13639
इ	-13640
ड	-13641
़	-13642
ত	-13643
দ	-13644
ব	-13645
শ	-13646
স	-13647
ਆ	-13648
ட	-13649
ர	-13650
గ	-13651
డ	-13652
త	-13653
య	-13654
ు	-13655
ನ	-13656
ം	-13657
ത	-13658
ന	-13659
ള	-13660
വ	-13661
្	-13662
ḱ	-13663
ṇ	-13664
ẩ	-13665
‖	-13666
∆	-13667
⌃	-13668
⌛	-13669
■	-13670
☠	-13671
☺	-13672
❌	-13673
⠘	-13674
⠻	-13675
⡄	-13676
⡟	-13677
⡿	-13678
⢠	-13679
⢻	-13680
⢿	-13681
⭐	-13682
【	-13683
】	-13684
ひ	-13685
ツ	-13686
ヒ	-13687
ポ	-13688
ユ	-13689
乾	-13690
亨	-13691
仁	-13692
伍	-13693
伪	-13694
佩	-13695
侦	-13696
侨	-13697
俱	-13698
傀	-13699
僅	-13700
働	-13701
儡	-13702
凡	-13703
劑	-13704
劲	-13705
勉	-13706
勾	-13707
匠	-13708
匮	-13709
単	-13710
厉	-13711
厨	-13712
召	-13713
吞	-13714
咋	-13715
啦	-13716
嘱	-13717
墓	-13718
増	-13719
夕	-13720
夺	-13721
奠	-13722
妇	-13723
姐	-13724
孕	-13725
孙	-13726
宜	-13727
宰	-13728
宾	-13729
寂	-13730
寧	-13731
寿	-13732
専	-13733
屄	-13734
屑	-13735
岑	-13736
帆	-13737
庇	-13738
廳	-13739
弟	-13740
彈	-13741
応	-13742
怜	-13743
恣	-13744
悬	-13745
惩	-13746
愚	-13747
愤	-13748
戚	-13749
扎	-13750
拾	-13751
挖	-13752
振	-13753
捷	-13754
掘	-13755
採	-13756
摆	-13757
撑	-13758
撤	-13759
攀	-13760
旺	-13761
昌	-13762
昔	-13763
昨	-13764
晋	-13765
晕	-13766
曝	-13767
杨	-13768
枚	-13769
栩	-13770
梁	-13771
梅	-13772
條	-13773
梨	-13774
橄	-13775
橙	-13776
橫	-13777
檢	-13778
歐	-13779
殖	-13780
氢	-13781
氷	-13782
沈	-13783
沖	-13784
泪	-13785
泳	-13786
浑	-13787
涛	-13788
渊	-13789
湯	-13790
溉	-13791
滞	-13792
滥	-13793
潔	-13794
濕	-13795
濾	-13796
灌	-13797
焼	-13798
煌	-13799
煎	-13800
犹	-13801
猟	-13802
猩	-13803
猿	-13804
瑞	-13805
畴	-13806
癌	-13807
癥	-13808
盟	-13809
盲	-13810
盾	-13811
矛	-13812
矮	-13813
稽	-13814
竟	-13815
笃	-13816
笼	-13817
緊	-13818
績	-13819
纤	-13820
纸	-13821
绣	-13822
罕	-13823
羽	-13824
職	-13825
肚	-13826
胖	-13827
脏	-13828
腥	-13829
腻	-13830
臭	-13831
莎	-13832
葬	-13833
蔔	-13834
蕉	-13835
虛	-13836
蝶	-13837
褒	-13838
訊	-13839
誠	-13840
謂	-13841
谦	-13842
谬	-13843
豫	-13844
貴	-13845
轴	-13846
迟	-13847
迪	-13848
逊	-13849
逛	-13850
逸	-13851
遣	-13852
遥	-13853
酔	-13854
酷	-13855
針	-13856
鑭	-13857
钠	-13858
钥	-13859
钮	-13860
隻	-13861
雞	-13862
震	-13863
韦	-13864
頁	-13865
頼	-13866
額	-13867
颈	-13868
飲	-13869
飼	-13870
餚	-13871
饋	-13872
馨	-13873
骁	-13874
骚	-13875
鳴	-13876
鸽	-13877
黃	-13878
黒	-13879
것	-13880
나	-13881
대	-13882
드	-13883
만	-13884
모	-13885
분	-13886
아	-13887
알	-13888
제	-13889
코	-13890
표	-13891
확	-13892
🇨	-13893
🇪	-13894
🇵	-13895
🌐	-13896
🌕	-13897
🌱	-13898
🌺	-13899
🌿	-13900
🍔	-13901
🍽	-13902
🏞	-13903
🐈	-13904
👈	-13905
💔	-13906
💕	-13907
💣	-13908
💬	-13909
📱	-13910
🔒	-13911
😈	-13912
😌	-13913
😬	-13914
😭	-13915
😳	-13916
🙅	-13917
🚔	-13918
🚕	-13919
🤩	-13920
🥳	-13921
🦠	-13922
🧒	-13923
🧠	-13924
🫥	-13925
	-13926
Ê	-13927
Î	-13928
ħ	-13929
Ż	-13930
ǹ	-13931
ɛ	-13932
ʁ	-13933
ʊ	-13934
ʕ	-13935
̄	-13936
Α	-13937
Π	-13938
ξ	-13939
Ё	-13940
֥	-13941
ִ	-13942
ֵ	-13943
ׁ	-13944
ـ	-13945
ग	-13946
छ	-13947
ध	-13948
ु	-13949
ো	-13950
ਗ	-13951
ਣ	-13952
ப	-13953
ா	-13954
ை	-13955
ఖ	-13956
ూ	-13957
ಿ	-13958
ು	-13959
ര	-13960
ഷ	-13961
സ	-13962
െ	-13963
ൽ	-13964
ൾ	-13965
ជ	-13966
ា	-13967
Ṣ	-13968
Ấ	-13969
Ở	-13970
☎	-13971
☕	-13972
⚔	-13973
⚫	-13974
⠝	-13975
⠟	-13976
⠸	-13977
⠾	-13978
⣧	-13979
⣼	-13980
ヌ	-13981
ホ	-13982
ヨ	-13983
丛	-13984
両	-13985
仓	-13986
伎	-13987
佐	-13988
佬	-13989
側	-13990
僖	-13991
僚	-13992
儇	-13993
凄	-13994
凑	-13995
凤	-13996
凶	-13997
刑	-13998
勃	-13999
卑	-14000
卜	-14001
卢	-14002
吊	-14003
吴	-14004
咳	-14005
哉	-14006
哩	-14007
哺	-14008
唤	-14009
啼	-14010
喉	-14011
喘	-14012
嗽	-14013
嘲	-14014
噌	-14015
嚼	-14016
囊	-14017
囲	-14018
坞	-14019
坡	-14020
埋	-14021
壁	-14022
夢	-14023
妥	-14024
妨	-14025
妹	-14026
媚	-14027
寞	-14028
寺	-14029
尖	-14030
屈	-14031
届	-14032
屠	-14033
岂	-14034
峭	-14035
席	-14036
帯	-14037
庄	-14038
弓	-14039
彎	-14040
徐	-14041
忠	-14042
忱	-14043
悪	-14044
惟	-14045
慨	-14046
憂	-14047
憾	-14048
懼	-14049
懿	-14050
扔	-14051
択	-14052
拶	-14053
挚	-14054
挡	-14055
挤	-14056
挨	-14057
揮	-14058
搓	-14059
摇	-14060
摔	-14061
摸	-14062
撐	-14063
擊	-14064
擬	-14065
攝	-14066
旗	-14067
旱	-14068
昧	-14069
昼	-14070
曼	-14071
栄	-14072
栈	-14073
栋	-14074
栏	-14075
梳	-14076
極	-14077
榜	-14078
榴	-14079
槛	-14080
樽	-14081
欖	-14082
氮	-14083
汕	-14084
沮	-14085
沸	-14086
泄	-14087
泌	-14088
泰	-14089
浸	-14090
涟	-14091
涼	-14092
淀	-14093
淋	-14094
渔	-14095
渺	-14096
溪	-14097
漪	-14098
漼	-14099
潭	-14100
澗	-14101
濑	-14102
濤	-14103
炉	-14104
烛	-14105
熔	-14106
爪	-14107
爽	-14108
牢	-14109
牧	-14110
犬	-14111
狡	-14112
猾	-14113
瑕	-14114
瓣	-14115
産	-14116
疯	-14117
疵	-14118
疼	-14119
盈	-14120
盤	-14121
眨	-14122
眾	-14123
瞒	-14124
瞭	-14125
瞻	-14126
碑	-14127
磅	-14128
礙	-14129
祈	-14130
祉	-14131
秉	-14132
窄	-14133
竹	-14134
筆	-14135
糊	-14136
糙	-14137
納	-14138
絮	-14139
緑	-14140
織	-14141
纵	-14142
绽	-14143
缀	-14144
罩	-14145
羁	-14146
翘	-14147
肝	-14148
腔	-14149
腳	-14150
臉	-14151
臺	-14152
舌	-14153
芽	-14154
苷	-14155
荡	-14156
菇	-14157
菠	-14158
蓬	-14159
蓮	-14160
藤	-14161
虎	-14162
虹	-14163
蛇	-14164
蝴	-14165
裂	-14166
裕	-14167
裘	-14168
補	-14169
覚	-14170
覽	-14171
診	-14172
課	-14173
諧	-14174
譬	-14175
诡	-14176
谊	-14177
谓	-14178
賛	-14179
贈	-14180
贤	-14181
贾	-14182
赡	-14183
趁	-14184
跌	-14185
軌	-14186
転	-14187
轰	-14188
辜	-14189
辱	-14190
遺	-14191
邦	-14192
邻	-14193
醇	-14194
鋼	-14195
錢	-14196
铱	-14197
闷	-14198
阀	-14199
陋	-14200
隋	-14201
隠	-14202
隱	-14203
雖	-14204
雙	-14205
霧	-14206
霸	-14207
靈	-14208
韧	-14209
韩	-14210
頂	-14211
順	-14212
須	-14213
養	-14214
饼	-14215
驚	-14216
驭	-14217
鬆	-14218
鳞	-14219
鸝	-14220
鹿	-14221
간	-14222
구	-14223
길	-14224
동	-14225
되	-14226
들	-14227
러	-14228
려	-14229
비	-14230
생	-14231
성	-14232
스	-14233
야	-14234
양	-14235
연	-14236
우	-14237
월	-14238
웹	-14239
일	-14240
적	-14241
정	-14242
행	-14243
회	-14244
후	-14245
🇴	-14246
🌎	-14247
🌙	-14248
🍅	-14249
🍓	-14250
🍰	-14251
🍲	-14252
🍳	-14253
🍴	-14254
🍻	-14255
🍿	-14256
🎥	-14257
🎩	-14258
🎬	-14259
🎶	-14260
🏄	-14261
🏡	-14262
🏽	-14263
🏾	-14264
🐺	-14265
👌	-14266
👏	-14267
👧	-14268
👩	-14269
👵	-14270
💩	-14271
💭	-14272
🔎	-14273
🔧	-14274
🕹	-14275
😩	-14276
😱	-14277
🙃	-14278
🚭	-14279
🤡	-14280
🤪	-14281
🥚	-14282
🥦	-14283
🥷	-14284
🧀	-14285
🧑	-14286
🧔	-14287
🧘	-14288
🧮	-14289
	-14290
¥	-14291
Ý	-14292
ċ	-14293
ů	-14294
Ÿ	-14295
Ž	-14296
ǔ	-14297
ǽ	-14298
ș	-14299
̉	-14300
̪	-14301
Σ	-14302
ζ	-14303
ώ	-14304
Գ	-14305
Ժ	-14306
ե	-14307
զ	-14308
ր	-14309
֖	-14310
֙	-14311
ֹ	-14312
ץ	-14313
ٍ	-14314
٪	-14315
چ	-14316
ں	-14317
ھ	-14318
ܒ	-14319
ܕ	-14320
ܘ	-14321
ܝ	-14322
ܥ	-14323
ख	-14324
ट	-14325
ढ	-14326
উ	-14327
খ	-14328
জ	-14329
ট	-14330
থ	-14331
ਅ	-14332
ਚ	-14333
ਜ	-14334
ਡ	-14335
ਧ	-14336
ਭ	-14337
ੂ	-14338
அ	-14339
ங	-14340
ச	-14341
த	-14342
ய	-14343
ள	-14344
ఐ	-14345
ద	-14346
మ	-14347
వ	-14348
ై	-14349
ో	-14350
ౌ	-14351
ರ	-14352
ವ	-14353
ಾ	-14354
ദ	-14355
ല	-14356
ാ	-14357
ൂ	-14358
േ	-14359
ඞ	-14360
ฅ	-14361
Ꭿ	-14362
ក	-14363
ប	-14364
ព	-14365
ម	-14366
យ	-14367
ុ	-14368
ṃ	-14369
ṣ	-14370
ṭ	-14371
Ả	-14372
ỡ	-14373
ἐ	-14374
‟	-14375
←	-14376
⇒	-14377
∃	-14378
∉	-14379
⊂	-14380
╦	-14381
○	-14382
◕	-14383
☆	-14384
✓	-14385
⟩	-14386
⠎	-14387
⠕	-14388
⠷	-14389
⢶	-14390
⢹	-14391
⣸	-14392
ぐ	-14393
ふ	-14394
ォ	-14395
ガ	-14396
ザ	-14397
㐅	-14398
丸	-14399
亜	-14400
亞	-14401
仇	-14402
仮	-14403
伐	-14404
佑	-14405
佣	-14406
併	-14407
佼	-14408
侮	-14409
侯	-14410
俯	-14411
倘	-14412
傾	-14413
儀	-14414
儘	-14415
償	-14416
兹	-14417
凸	-14418
凹	-14419
刪	-14420
削	-14421
剌	-14422
剩	-14423
剪	-14424
劝	-14425
労	-14426
匆	-14427
匿	-14428
卸	-14429
厌	-14430
厘	-14431
厳	-14432
吨	-14433
吻	-14434
呕	-14435
咏	-14436
咬	-14437
哄	-14438
哇	-14439
哔	-14440
哨	-14441
哮	-14442
啟	-14443
喃	-14444
喧	-14445
喽	-14446
嗜	-14447
嗯	-14448
嘉	-14449
嘎	-14450
嘖	-14451
噬	-14452
嚐	-14453
嚴	-14454
坊	-14455
垦	-14456
堪	-14457
塌	-14458
塗	-14459
壞	-14460
壯	-14461
夔	-14462
契	-14463
奸	-14464
妄	-14465
姬	-14466
娛	-14467
婴	-14468
孫	-14469
宠	-14470
宴	-14471
審	-14472
寬	-14473
屎	-14474
岭	-14475
岱	-14476
峙	-14477
峡	-14478
峻	-14479
崎	-14480
巅	-14481
巣	-14482
巷	-14483
帕	-14484
帘	-14485
帧	-14486
帳	-14487
庁	-14488
広	-14489
廊	-14490
廟	-14491
廻	-14492
弊	-14493
弯	-14494
彦	-14495
徑	-14496
徽	-14497
怒	-14498
怡	-14499
怯	-14500
恃	-14501
恤	-14502
悔	-14503
惨	-14504
慌	-14505
憐	-14506
憲	-14507
懈	-14508
懒	-14509
戍	-14510
扑	-14511
抖	-14512
抛	-14513
拏	-14514
拭	-14515
拳	-14516
挫	-14517
挽	-14518
捅	-14519
捆	-14520
捞	-14521
捧	-14522
掙	-14523
掛	-14524
搖	-14525
搬	-14526
摧	-14527
摯	-14528
撃	-14529
撿	-14530
敘	-14531
斥	-14532
旁	-14533
旭	-14534
旷	-14535
旻	-14536
晃	-14537
晏	-14538
晒	-14539
晓	-14540
晔	-14541
晷	-14542
暈	-14543
暠	-14544
暢	-14545
暧	-14546
曄	-14547
曉	-14548
柄	-14549
柠	-14550
柷	-14551
査	-14552
桌	-14553
桑	-14554
梭	-14555
棍	-14556
椅	-14557
椭	-14558
榮	-14559
横	-14560
橿	-14561
檬	-14562
歇	-14563
歸	-14564
歹	-14565
殷	-14566
毯	-14567
氯	-14568
汚	-14569
沢	-14570
沽	-14571
津	-14572
洪	-14573
浆	-14574
浣	-14575
涂	-14576
涌	-14577
涓	-14578
涝	-14579
涣	-14580
涿	-14581
淆	-14582
淌	-14583
淫	-14584
淵	-14585
渣	-14586
湲	-14587
溃	-14588
溢	-14589
滕	-14590
漁	-14591
漉	-14592
漱	-14593
漸	-14594
潰	-14595
濒	-14596
瀚	-14597
灰	-14598
炖	-14599
炫	-14600
烁	-14601
焉	-14602
焖	-14603
煙	-14604
煲	-14605
爭	-14606
爸	-14607
爹	-14608
爺	-14609
牵	-14610
狭	-14611
猛	-14612
猶	-14613
獣	-14614
獻	-14615
琐	-14616
瑰	-14617
璠	-14618
畏	-14619
畢	-14620
痕	-14621
痴	-14622
瘦	-14623
癒	-14624
盔	-14625
盗	-14626
盪	-14627
眺	-14628
睫	-14629
瞄	-14630
瞩	-14631
砖	-14632
砸	-14633
碱	-14634
祸	-14635
禅	-14636
禽	-14637
穹	-14638
窃	-14639
窜	-14640
竭	-14641
競	-14642
筹	-14643
箭	-14644
篆	-14645
篮	-14646
簿	-14647
籤	-14648
粹	-14649
糟	-14650
糾	-14651
紊	-14652
純	-14653
紙	-14654
絶	-14655
綠	-14656
総	-14657
縛	-14658
縠	-14659
繪	-14660
繫	-14661
纺	-14662
绑	-14663
缆	-14664
缠	-14665
缭	-14666
羅	-14667
羹	-14668
翌	-14669
翰	-14670
肩	-14671
胺	-14672
脳	-14673
脾	-14674
腸	-14675
臆	-14676
舉	-14677
舍	-14678
舱	-14679
芝	-14680
芩	-14681
苍	-14682
苒	-14683
苔	-14684
苗	-14685
苟	-14686
茨	-14687
荀	-14688
荏	-14689
莊	-14690
莹	-14691
萝	-14692
萧	-14693
萱	-14694
蒂	-14695
蒼	-14696
蔓	-14697
蔚	-14698
薩	-14699
藜	-14700
蘑	-14701
虾	-14702
蚀	-14703
蚁	-14704
蛤	-14705
蜀	-14706
蜡	-14707
蝙	-14708
蝠	-14709
蝼	-14710
蠻	-14711
衍	-14712
衫	-14713
衬	-14714
衷	-14715
袤	-14716
裴	-14717
裹	-14718
褲	-14719
訝	-14720
註	-14721
誇	-14722
誓	-14723
諷	-14724
諾	-14725
講	-14726
诽	-14727
谍	-14728
谑	-14729
谣	-14730
谤	-14731
豊	-14732
貢	-14733
貧	-14734
賀	-14735
贱	-14736
贺	-14737
赚	-14738
赢	-14739
赵	-14740
趟	-14741
踏	-14742
踐	-14743
踝	-14744
蹄	-14745
蹲	-14746
躲	-14747
軽	-14748
輔	-14749
辈	-14750
辉	-14751
辕	-14752
込	-14753
逗	-14754
遁	-14755
邁	-14756
郭	-14757
酌	-14758
酥	-14759
酮	-14760
鈾	-14761
銀	-14762
銪	-14763
鏡	-14764
鐠	-14765
钇	-14766
钓	-14767
钨	-14768
铅	-14769
铜	-14770
铠	-14771
铯	-14772
铺	-14773
锂	-14774
锡	-14775
閉	-14776
陇	-14777
陌	-14778
陕	-14779
陡	-14780
雕	-14781
霓	-14782
霞	-14783
韌	-14784
韓	-14785
頑	-14786
頓	-14787
頸	-14788
顎	-14789
顽	-14790
颂	-14791
飯	-14792
餅	-14793
饒	-14794
馔	-14795
駛	-14796
駭	-14797
騎	-14798
騙	-14799
驅	-14800
骂	-14801
骄	-14802
魏	-14803
鲸	-14804
鵝	-14805
鸭	-14806
鹅	-14807
鹭	-14808
鹰	-14809
齿	-14810
개	-14811
게	-14812
견	-14813
공	-14814
된	-14815
등	-14816
라	-14817
르	-14818
마	-14819
매	-14820
면	-14821
명	-14822
므	-14823
및	-14824
바	-14825
배	-14826
변	-14827
선	-14828
설	-14829
소	-14830
않	-14831
얼	-14832
없	-14833
었	-14834
작	-14835
저	-14836
절	-14837
조	-14838
주	-14839
준	-14840
증	-14841
진	-14842
출	-14843
치	-14844
친	-14845
했	-14846
🆕	-14847
🇦	-14848
🇾	-14849
🌉	-14850
🌲	-14851
🍝	-14852
🍯	-14853
🎈	-14854
🎓	-14855
🎭	-14856
🎯	-14857
🎾	-14858
🏋	-14859
🏖	-14860
🏝	-14861
🐍	-14862
👊	-14863
👎	-14864
💉	-14865
💚	-14866
💤	-14867
💧	-14868
💫	-14869
📅	-14870
📖	-14871
📲	-14872
🔀	-14873
🔓	-14874
🔜	-14875
🔞	-14876
🔪	-14877
🔬	-14878
🔴	-14879
🕒	-14880
🕯	-14881
🖱	-14882
🗡	-14883
🗣	-14884
🗺	-14885
😆	-14886
😕	-14887
😖	-14888
😘	-14889
😝	-14890
😞	-14891
😮	-14892
😲	-14893
😷	-14894
🚢	-14895
🚨	-14896
🚫	-14897
🤍	-14898
🤏	-14899
🤒	-14900
🤕	-14901
🤦	-14902
🤧	-14903
🤮	-14904
🥕	-14905
🥘	-14906
🥜	-14907
🥪	-14908
🥺	-14909
🦜	-14910
🦴	-14911
🦷	-14912
🧅	-14913
🧐	-14914
🪑	-14915
🫄	-14916
	-14917
¤	-14918
Æ	-14919
Ì	-14920
Ï	-14921
Ð	-14922
Ø	-14923
ÿ	-14924
ĕ	-14925
ģ	-14926
ĭ	-14927
ļ	-14928
ň	-14929
ŏ	-14930
ŭ	-14931
ž	-14932
ƒ	-14933
ǎ	-14934
Ș	-14935
ɾ	-14936
ʃ	-14937
ʒ	-14938
ʿ	-14939
̃	-14940
̐	-14941
̞	-14942
̣	-14943
̯	-14944
Ά	-14945
Έ	-14946
Β	-14947
Ε	-14948
Κ	-14949
Ο	-14950
ғ	-14951
֑	-14952
֗	-14953
֣	-14954
ֱ	-14955
ֽ	-14956
׃	-14957
ٌ	-14958
٢	-14959
ٰ	-14960
گ	-14961
۔	-14962
ܐ	-14963
ܨ	-14964
ܫ	-14965
ऊ	-14966
ए	-14967
ओ	-14968
ञ	-14969
ठ	-14970
थ	-14971
भ	-14972
ळ	-14973
श	-14974
ृ	-14975
ौ	-14976
ং	-14977
অ	-14978
গ	-14979
ছ	-14980
ধ	-14981
ভ	-14982
ল	-14983
ষ	-14984
হ	-14985
ী	-14986
ਖ	-14987
ਬ	-14988
ਯ	-14989
ੱ	-14990
ஃ	-14991
ஆ	-14992
இ	-14993
உ	-14994
எ	-14995
ஒ	-14996
ஞ	-14997
ண	-14998
ந	-14999
ற	-15000
ழ	-15001
வ	-15002
ெ	-15003
ே	-15004
ொ	-15005
ோ	-15006
అ	-15007
ఠ	-15008
థ	-15009
బ	-15010
భ	-15011
ే	-15012
ಂ	-15013
ಒ	-15014
ಗ	-15015
ಜ	-15016
ಠ	-15017
ತ	-15018
ದ	-15019
ಪ	-15020
ಮ	-15021
ಯ	-15022
ಲ	-15023
ಳ	-15024
ಶ	-15025
ಸ	-15026
ಹ	-15027
ೀ	-15028
ೆ	-15029
ೇ	-15030
ೈ	-15031
ೋ	-15032
್	-15033
അ	-15034
ആ	-15035
എ	-15036
ഒ	-15037
ഓ	-15038
ജ	-15039
ഞ	-15040
ഭ	-15041
ഹ	-15042
ീ	-15043
ർ	-15044
ត	-15045
ធ	-15046
រ	-15047
ិ	-15048
េ	-15049
ᲆ	-15050
ᴗ	-15051
ṁ	-15052
ṅ	-15053
ẵ	-15054
Ọ	-15055
ἱ	-15056
‿	-15057
⁠	-15058
⁢	-15059
↳	-15060
⇪	-15061
∇	-15062
∗	-15063
⋯	-15064
╮	-15065
╯	-15066
╰	-15067
♈	-15068
♥	-15069
⚕	-15070
⚙	-15071
⚛	-15072
⚽	-15073
⛔	-15074
⛰	-15075
⛲	-15076
✅	-15077
✌	-15078
✍	-15079
✧	-15080
❔	-15081
❗	-15082
➡	-15083
⟨	-15084
⠏	-15085
⠓	-15086
⠠	-15087
⠧	-15088
⠹	-15089
⡁	-15090
⡆	-15091
⡏	-15092
⡰	-15093
⡶	-15094
⢆	-15095
⢰	-15096
⣆	-15097
⣇	-15098
⣰	-15099
⣹	-15100
⤵	-15101
〈	-15102
〉	-15103
『	-15104
ぬ	-15105
ぴ	-15106
ゅ	-15107
ゆ	-15108
ァ	-15109
ゼ	-15110
ヤ	-15111
丐	-15112
丙	-15113
丟	-15114
丢	-15115
丫	-15116
乍	-15117
亏	-15118
井	-15119
亶	-15120
伞	-15121
伶	-15122
伽	-15123
佇	-15124
侃	-15125
侏	-15126
価	-15127
俏	-15128
俐	-15129
俘	-15130
倉	-15131
倣	-15132
値	-15133
倦	-15134
傅	-15135
傑	-15136
傘	-15137
僧	-15138
僱	-15139
兆	-15140
冈	-15141
冊	-15142
冗	-15143
冤	-15144
冨	-15145
冪	-15146
冶	-15147
凇	-15148
凪	-15149
凰	-15150
凿	-15151
券	-15152
剃	-15153
剔	-15154
剽	-15155
劃	-15156
劄	-15157
劫	-15158
勁	-15159
勘	-15160
募	-15161
勧	-15162
匕	-15163
匙	-15164
匪	-15165
卉	-15166
卒	-15167
卻	-15168
叩	-15169
叮	-15170
吠	-15171
吵	-15172
吾	-15173
呂	-15174
呆	-15175
咒	-15176
咙	-15177
咽	-15178
哗	-15179
唉	-15180
唑	-15181
唢	-15182
啃	-15183
啸	-15184
喂	-15185
喇	-15186
喋	-15187
喔	-15188
喩	-15189
喪	-15190
喰	-15191
嗅	-15192
嗨	-15193
嘘	-15194
嘿	-15195
団	-15196
圏	-15197
圧	-15198
坠	-15199
垒	-15200
垠	-15201
垫	-15202
垮	-15203
塘	-15204
墟	-15205
墮	-15206
壑	-15207
売	-15208
壶	-15209
夾	-15210
奂	-15211
妊	-15212
姮	-15213
娅	-15214
娘	-15215
娥	-15216
婦	-15217
婪	-15218
媲	-15219
媳	-15220
孀	-15221
孵	-15222
宛	-15223
寢	-15224
寰	-15225
寶	-15226
尉	-15227
尘	-15228
屁	-15229
屆	-15230
屉	-15231
屌	-15232
屦	-15233
岷	-15234
峦	-15235
峨	-15236
島	-15237
崔	-15238
崖	-15239
巍	-15240
巒	-15241
巢	-15242
帖	-15243
幂	-15244
幣	-15245
幹	-15246
弛	-15247
弥	-15248
弦	-15249
彙	-15250
徙	-15251
徹	-15252
怅	-15253
怠	-15254
怨	-15255
恆	-15256
恭	-15257
悅	-15258
悍	-15259
悟	-15260
悧	-15261
悸	-15262
惋	-15263
惡	-15264
惦	-15265
惫	-15266
惰	-15267
惹	-15268
愧	-15269
慑	-15270
慘	-15271
慣	-15272
憫	-15273
懇	-15274
懦	-15275
懸	-15276
戈	-15277
戸	-15278
扇	-15279
扭	-15280
扯	-15281
扱	-15282
扶	-15283
抉	-15284
抓	-15285
抢	-15286
抿	-15287
拘	-15288
拝	-15289
拡	-15290
拦	-15291
拮	-15292
拯	-15293
挐	-15294
挟	-15295
挠	-15296
挣	-15297
挪	-15298
捍	-15299
捎	-15300
捏	-15301
捲	-15302
捶	-15303
掀	-15304
掃	-15305
掠	-15306
掣	-15307
揉	-15308
揺	-15309
揽	-15310
搂	-15311
搐	-15312
摊	-15313
撩	-15314
撼	-15315
擦	-15316
攜	-15317
敗	-15318
敛	-15319
敞	-15320
敵	-15321
敷	-15322
斐	-15323
斓	-15324
斩	-15325
晖	-15326
晝	-15327
晦	-15328
暁	-15329
暝	-15330
暫	-15331
曠	-15332
曬	-15333
杉	-15334
杞	-15335
杠	-15336
枉	-15337
枣	-15338
枪	-15339
枯	-15340
枸	-15341
柏	-15342
柜	-15343
柱	-15344
柴	-15345
栗	-15346
桂	-15347
桨	-15348
桶	-15349
梗	-15350
梵	-15351
棄	-15352
棘	-15353
棧	-15354
棵	-15355
検	-15356
楷	-15357
榄	-15358
槌	-15359
樓	-15360
樫	-15361
樵	-15362
橋	-15363
橡	-15364
欄	-15365
欽	-15366
歩	-15367
歪	-15368
歲	-15369
歳	-15370
殉	-15371
殤	-15372
殿	-15373
毅	-15374
毡	-15375
毳	-15376
氦	-15377
汗	-15378
汲	-15379
沁	-15380
沆	-15381
沌	-15382
沐	-15383
沥	-15384
泓	-15385
泼	-15386
洩	-15387
浊	-15388
浜	-15389
浴	-15390
涙	-15391
涧	-15392
涯	-15393
済	-15394
渉	-15395
湧	-15396
溜	-15397
滩	-15398
漆	-15399
漾	-15400
潇	-15401
澄	-15402
澈	-15403
澡	-15404
澤	-15405
濁	-15406
濃	-15407
濫	-15408
瀍	-15409
瀏	-15410
瀰	-15411
灑	-15412
灸	-15413
灼	-15414
炙	-15415
炭	-15416
炮	-15417
炽	-15418
烙	-15419
焊	-15420
焗	-15421
焯	-15422
煤	-15423
熙	-15424
熵	-15425
燈	-15426
營	-15427
爍	-15428
牆	-15429
牒	-15430
牲	-15431
牺	-15432
狐	-15433
猱	-15434
玲	-15435
琢	-15436
琵	-15437
琶	-15438
瑜	-15439
瑩	-15440
瑶	-15441
璇	-15442
甄	-15443
甙	-15444
町	-15445
疇	-15446
疎	-15447
疡	-15448
盎	-15449
盜	-15450
監	-15451
眯	-15452
眸	-15453
睦	-15454
瞰	-15455
矣	-15456
矶	-15457
砀	-15458
砍	-15459
硅	-15460
碌	-15461
碾	-15462
磷	-15463
礴	-15464
祛	-15465
祠	-15466
祯	-15467
禧	-15468
禹	-15469
秃	-15470
稅	-15471
稠	-15472
穎	-15473
穫	-15474
窓	-15475
窟	-15476
窮	-15477
窺	-15478
竜	-15479
笠	-15480
笨	-15481
筷	-15482
篡	-15483
篷	-15484
簽	-15485
籟	-15486
籠	-15487
粵	-15488
糠	-15489
紓	-15490
紜	-15491
絆	-15492
絲	-15493
継	-15494
綜	-15495
綢	-15496
綴	-15497
綻	-15498
縁	-15499
繰	-15500
纂	-15501
纱	-15502
纶	-15503
绊	-15504
绎	-15505
绚	-15506
绞	-15507
绳	-15508
缈	-15509
缛	-15510
缤	-15511
缥	-15512
罐	-15513
羌	-15514
羞	-15515
羣	-15516
翁	-15517
翱	-15518
耍	-15519
耕	-15520
聰	-15521
聳	-15522
肅	-15523
肆	-15524
肽	-15525
肾	-15526
胎	-15527
胥	-15528
脈	-15529
脍	-15530
脖	-15531
脹	-15532
腩	-15533
腰	-15534
膚	-15535
膝	-15536
臟	-15537
臨	-15538
舰	-15539
艮	-15540
艱	-15541
艳	-15542
芡	-15543
芥	-15544
芹	-15545
苑	-15546
茂	-15547
茉	-15548
茎	-15549
茏	-15550
茗	-15551
茵	-15552
荆	-15553
莓	-15554
莖	-15555
莺	-15556
莽	-15557
菁	-15558
菊	-15559
萩	-15560
葛	-15561
蓑	-15562
蔑	-15563
蔴	-15564
蕾	-15565
藩	-15566
蘇	-15567
虐	-15568
虜	-15569
虞	-15570
蚩	-15571
蛊	-15572
蛙	-15573
蜇	-15574
蜕	-15575
蜥	-15576
蜴	-15577
蟹	-15578
蠢	-15579
衅	-15580
衔	-15581
衝	-15582
衰	-15583
衾	-15584
袍	-15585
裙	-15586
裤	-15587
裨	-15588
褪	-15589
襄	-15590
証	-15591
詫	-15592
誦	-15593
諦	-15594
諫	-15595
諮	-15596
謔	-15597
謙	-15598
謹	-15599
讚	-15600
讶	-15601
讷	-15602
讽	-15603
诈	-15604
诙	-15605
诫	-15606
诬	-15607
谎	-15608
谒	-15609
谚	-15610
谟	-15611
谴	-15612
豁	-15613
豐	-15614
豹	-15615
販	-15616
貫	-15617
貿	-15618
賣	-15619
賦	-15620
贅	-15621
贏	-15622
贪	-15623
贿	-15624
赁	-15625
赃	-15626
赈	-15627
赌	-15628
赦	-15629
赴	-15630
赶	-15631
趕	-15632
趨	-15633
跡	-15634
跪	-15635
踊	-15636
踢	-15637
踩	-15638
踵	-15639
蹈	-15640
蹩	-15641
輯	-15642
轩	-15643
辄	-15644
辍	-15645
辖	-15646
辙	-15647
辰	-15648
辽	-15649
迤	-15650
迥	-15651
迸	-15652
逶	-15653
遏	-15654
遜	-15655
遞	-15656
遨	-15657
遮	-15658
遲	-15659
邈	-15660
邏	-15661
郊	-15662
郑	-15663
郫	-15664
鄰	-15665
酞	-15666
酵	-15667
酶	-15668
釜	-15669
鈍	-15670
鈕	-15671
鉄	-15672
銅	-15673
銘	-15674
鋁	-15675
鋒	-15676
鋪	-15677
錬	-15678
鑑	-15679
鑒	-15680
钉	-15681
钗	-15682
钩	-15683
铃	-15684
铛	-15685
铸	-15686
锐	-15687
锤	-15688
镌	-15689
镯	-15690
閃	-15691
閒	-15692
闊	-15693
闘	-15694
闯	-15695
闹	-15696
闽	-15697
阎	-15698
阑	-15699
阪	-15700
阱	-15701
陀	-15702
陛	-15703
陰	-15704
険	-15705
階	-15706
隧	-15707
雁	-15708
雉	-15709
雰	-15710
霁	-15711
霄	-15712
靴	-15713
靶	-15714
頗	-15715
顏	-15716
顧	-15717
颁	-15718
颅	-15719
颌	-15720
颖	-15721
颤	-15722
飾	-15723
餘	-15724
饞	-15725
饲	-15726
饶	-15727
馋	-15728
駁	-15729
駆	-15730
駿	-15731
驯	-15732
驰	-15733
驻	-15734
驼	-15735
骋	-15736
骸	-15737
鬥	-15738
魯	-15739
鲨	-15740
鲲	-15741
鴎	-15742
鴛	-15743
鴦	-15744
鸞	-15745
鸦	-15746
鹏	-15747
鹫	-15748
黏	-15749
黙	-15750
鼬	-15751
齡	-15752
龍	-15753
龟	-15754
감	-15755
갑	-15756
검	-15757
경	-15758
교	-15759
궁	-15760
규	-15761
근	-15762
글	-15763
까	-15764
끼	-15765
넘	-15766
네	-15767
녀	-15768
녕	-15769
노	-15770
능	-15771
닙	-15772
닝	-15773
달	-15774
당	-15775
데	-15776
독	-15777
둡	-15778
든	-15779
듭	-15780
때	-15781
떤	-15782
랍	-15783
래	-15784
량	-15785
렇	-15786
렴	-15787
류	-15788
린	-15789
립	-15790
머	-15791
며	-15792
목	-15793
못	-15794
무	-15795
문	-15796
물	-15797
뭔	-15798
밑	-15799
발	-15800
법	-15801
베	-15802
별	-15803
브	-15804
상	-15805
색	-15806
세	-15807
속	-15808
술	-15809
슈	-15810
식	-15811
실	-15812
싶	-15813
악	-15814
안	-15815
약	-15816
엔	-15817
예	-15818
오	-15819
옥	-15820
와	-15821
왕	-15822
외	-15823
용	-15824
움	-15825
위	-15826
유	-15827
육	-15828
잃	-15829
자	-15830
잔	-15831
잘	-15832
져	-15833
중	-15834
참	-15835
책	-15836
처	-15837
철	-15838
첩	-15839
최	-15840
추	-15841
침	-15842
쾌	-15843
타	-15844
터	-15845
테	-15846
통	-15847
투	-15848
틱	-15849
판	-15850
편	-15851
품	-15852
학	-15853
할	-15854
현	-15855
형	-15856
홍	-15857
환	-15858
활	-15859
🅿	-15860
🇧	-15861
🇱	-15862
🇷	-15863
🇺	-15864
🇻	-15865
🌈	-15866
🌏	-15867
🌡	-15868
🌧	-15869
🌩	-15870
🌷	-15871
🌹	-15872
🍖	-15873
🍫	-15874
🍹	-15875
🍺	-15876
🍾	-15877
🎂	-15878
🎄	-15879
🎇	-15880
🎊	-15881
🎎	-15882
🎤	-15883
🎲	-15884
🏕	-15885
🏙	-15886
🏛	-15887
🏟	-15888
🏠	-15889
🏥	-15890
🏪	-15891
🏫	-15892
🐁	-15893
🐑	-15894
🐔	-15895
🐜	-15896
🐝	-15897
🐢	-15898
🐦	-15899
🐾	-15900
👞	-15901
👢	-15902
👣	-15903
👦	-15904
👮	-15905
👴	-15906
👶	-15907
👷	-15908
👼	-15909
💆	-15910
💊	-15911
💓	-15912
💗	-15913
💝	-15914
💞	-15915
💨	-15916
💯	-15917
💹	-15918
💾	-15919
📋	-15920
📡	-15921
📢	-15922
📦	-15923
📨	-15924
📸	-15925
📺	-15926
🔁	-15927
🔄	-15928
🔗	-15929
🔟	-15930
🔢	-15931
🔫	-15932
🔭	-15933
🔮	-15934
🕊	-15935
🕍	-15936
🕳	-15937
🖥	-15938
🗓	-15939
😍	-15940
😏	-15941
😐	-15942
😙	-15943
😛	-15944
😟	-15945
😠	-15946
😢	-15947
😣	-15948
😨	-15949
😴	-15950
😵	-15951
😶	-15952
🙄	-15953
🙇	-15954
🙋	-15955
🙍	-15956
🚄	-15957
🚪	-15958
🚶	-15959
🛣	-15960
🤘	-15961
🤙	-15962
🤞	-15963
🤤	-15964
🤭	-15965
🤰	-15966
🥁	-15967
🥇	-15968
🥐	-15969
🥔	-15970
🥖	-15971
🥗	-15972
🥤	-15973
🥮	-15974
🥲	-15975
🦀	-15976
🦁	-15977
🦃	-15978
🦄	-15979
🦈	-15980
🦯	-15981
🦸	-15982
🧂	-15983
🧟	-15984
🧥	-15985
🧩	-15986
🧪	-15987
🧶	-15988
🪒	-15989
🪓	-15990
🫁	-15991
🫑	-15992
🫤	-15993
